#include "magic_wand_model_data.h"


// We need to keep the data array aligned on some architectures.

#ifdef __has_attribute

#define HAVE_ATTRIBUTE(x) __has_attribute(x)

#else

#define HAVE_ATTRIBUTE(x) 0

#endif

#if HAVE_ATTRIBUTE(aligned) || (defined(__GNUC__) && !defined(__clang__))

#define DATA_ALIGN_ATTRIBUTE __attribute__((aligned(4)))

#else

#define DATA_ALIGN_ATTRIBUTE

#endif


const unsigned char g_magic_wand_model_data[] DATA_ALIGN_ATTRIBUTE = {

  // Paste the data of the char array in `src/model.cc` here
0x1c, 0x00, 0x00, 0x00, 0x54, 0x46, 0x4c, 0x33, 0x14, 0x00, 0x20, 0x00,
  0x04, 0x00, 0x08, 0x00, 0x0c, 0x00, 0x10, 0x00, 0x14, 0x00, 0x00, 0x00,
  0x18, 0x00, 0x1c, 0x00, 0x14, 0x00, 0x00, 0x00, 0x03, 0x00, 0x00, 0x00,
  0x18, 0x00, 0x00, 0x00, 0x2c, 0x00, 0x00, 0x00, 0xd8, 0x00, 0x00, 0x00,
  0x2c, 0x00, 0x00, 0x00, 0x80, 0x00, 0x00, 0x00, 0x78, 0x00, 0x00, 0x00,
  0x05, 0x00, 0x00, 0x00, 0x28, 0x07, 0x00, 0x00, 0x44, 0x06, 0x00, 0x00,
  0xbc, 0x03, 0x00, 0x00, 0xf8, 0x02, 0x00, 0x00, 0xac, 0x01, 0x00, 0x00,
  0x01, 0x00, 0x00, 0x00, 0xd0, 0x00, 0x00, 0x00, 0x14, 0x00, 0x00, 0x00,
  0xdc, 0x32, 0x00, 0x00, 0xd8, 0x32, 0x00, 0x00, 0xd0, 0x31, 0x00, 0x00,
  0x1c, 0x31, 0x00, 0x00, 0x74, 0x30, 0x00, 0x00, 0xfc, 0x2f, 0x00, 0x00,
  0x90, 0x2f, 0x00, 0x00, 0x40, 0x13, 0x00, 0x00, 0xec, 0x11, 0x00, 0x00,
  0x10, 0x10, 0x00, 0x00, 0xb4, 0x07, 0x00, 0x00, 0xb0, 0x32, 0x00, 0x00,
  0xac, 0x32, 0x00, 0x00, 0xa8, 0x32, 0x00, 0x00, 0xa4, 0x32, 0x00, 0x00,
  0xa0, 0x32, 0x00, 0x00, 0x9c, 0x32, 0x00, 0x00, 0x98, 0x32, 0x00, 0x00,
  0x94, 0x32, 0x00, 0x00, 0x3c, 0x00, 0x00, 0x00, 0x00, 0x00, 0x00, 0x00,
  0x01, 0x00, 0x00, 0x00, 0x0c, 0x00, 0x00, 0x00, 0x08, 0x00, 0x0c, 0x00,
  0x04, 0x00, 0x08, 0x00, 0x08, 0x00, 0x00, 0x00, 0x08, 0x00, 0x00, 0x00,
  0x13, 0x00, 0x00, 0x00, 0x13, 0x00, 0x00, 0x00, 0x6d, 0x69, 0x6e, 0x5f,
  0x72, 0x75, 0x6e, 0x74, 0x69, 0x6d, 0x65, 0x5f, 0x76, 0x65, 0x72, 0x73,
  0x69, 0x6f, 0x6e, 0x00, 0xb6, 0xce, 0xff, 0xff, 0x04, 0x00, 0x00, 0x00,
  0x10, 0x00, 0x00, 0x00, 0x31, 0x2e, 0x35, 0x2e, 0x30, 0x00, 0x00, 0x00,
  0x00, 0x00, 0x00, 0x00, 0x00, 0x00, 0x00, 0x00, 0x0f, 0x00, 0x00, 0x00,
  0x4d, 0x4c, 0x49, 0x52, 0x20, 0x43, 0x6f, 0x6e, 0x76, 0x65, 0x72, 0x74,
  0x65, 0x64, 0x2e, 0x00, 0x00, 0x00, 0x0e, 0x00, 0x18, 0x00, 0x04, 0x00,
  0x08, 0x00, 0x0c, 0x00, 0x10, 0x00, 0x14, 0x00, 0x0e, 0x00, 0x00, 0x00,
  0x14, 0x00, 0x00, 0x00, 0x5c, 0x00, 0x00, 0x00, 0x60, 0x00, 0x00, 0x00,
  0x64, 0x00, 0x00, 0x00, 0x84, 0x00, 0x00, 0x00, 0x12, 0x00, 0x00, 0x00,
  0x9c, 0x31, 0x00, 0x00, 0x2c, 0x31, 0x00, 0x00, 0x88, 0x30, 0x00, 0x00,
  0xe0, 0x2f, 0x00, 0x00, 0x38, 0x2f, 0x00, 0x00, 0xd4, 0x2e, 0x00, 0x00,
  0x6c, 0x2e, 0x00, 0x00, 0x18, 0x12, 0x00, 0x00, 0xbc, 0x10, 0x00, 0x00,
  0xe0, 0x0e, 0x00, 0x00, 0x0c, 0x06, 0x00, 0x00, 0x28, 0x05, 0x00, 0x00,
  0xe8, 0x03, 0x00, 0x00, 0x3c, 0x03, 0x00, 0x00, 0x98, 0x02, 0x00, 0x00,
  0xd4, 0x01, 0x00, 0x00, 0x10, 0x01, 0x00, 0x00, 0x84, 0x00, 0x00, 0x00,
  0x01, 0x00, 0x00, 0x00, 0x00, 0x00, 0x00, 0x00, 0x01, 0x00, 0x00, 0x00,
  0x11, 0x00, 0x00, 0x00, 0x08, 0x00, 0x00, 0x00, 0x74, 0x05, 0x00, 0x00,
  0x94, 0x04, 0x00, 0x00, 0x78, 0x03, 0x00, 0x00, 0xbc, 0x02, 0x00, 0x00,
  0x30, 0x02, 0x00, 0x00, 0x50, 0x01, 0x00, 0x00, 0xa8, 0x00, 0x00, 0x00,
  0x10, 0x00, 0x00, 0x00, 0x04, 0x00, 0x00, 0x00, 0x6d, 0x61, 0x69, 0x6e,
  0x00, 0x00, 0x00, 0x00, 0x7a, 0xff, 0xff, 0xff, 0x00, 0x00, 0x00, 0x09,
  0x04, 0x00, 0x00, 0x00, 0x1c, 0x00, 0x00, 0x00, 0x10, 0x00, 0x00, 0x00,
  0x04, 0x00, 0x00, 0x00, 0xb2, 0xcf, 0xff, 0xff, 0x00, 0x00, 0x80, 0x3f,
  0x01, 0x00, 0x00, 0x00, 0x11, 0x00, 0x00, 0x00, 0x01, 0x00, 0x00, 0x00,
  0x10, 0x00, 0x00, 0x00, 0xa0, 0xfa, 0xff, 0xff, 0x19, 0x00, 0x00, 0x00,
  0x00, 0x00, 0x00, 0x19, 0x01, 0x00, 0x00, 0x00, 0x40, 0xcf, 0xff, 0xff,
  0x14, 0x00, 0x00, 0x00, 0x12, 0x00, 0x00, 0x00, 0x18, 0x00, 0x00, 0x00,
  0x30, 0x00, 0x00, 0x00, 0x20, 0x00, 0x00, 0x00, 0x02, 0x00, 0x00, 0x00,
  0x01, 0x00, 0x00, 0x00, 0x04, 0x00, 0x00, 0x00, 0x08, 0x00, 0x00, 0x00,
  0x49, 0x64, 0x65, 0x6e, 0x74, 0x69, 0x74, 0x79, 0x00, 0x00, 0x00, 0x00,
  0x02, 0x00, 0x00, 0x00, 0xff, 0xff, 0xff, 0xff, 0x04, 0x00, 0x00, 0x00,
  0x24, 0xd0, 0xff, 0xff, 0x00, 0x00, 0x0e, 0x00, 0x18, 0x00, 0x08, 0x00,
  0x0c, 0x00, 0x10, 0x00, 0x07, 0x00, 0x14, 0x00, 0x0e, 0x00, 0x00, 0x00,
  0x00, 0x00, 0x00, 0x08, 0x03, 0x00, 0x00, 0x00, 0x18, 0x00, 0x00, 0x00,
  0x0c, 0x00, 0x00, 0x00, 0x04, 0x00, 0x00, 0x00, 0x40, 0xcf, 0xff, 0xff,
  0x01, 0x00, 0x00, 0x00, 0x10, 0x00, 0x00, 0x00, 0x03, 0x00, 0x00, 0x00,
  0x0f, 0x00, 0x00, 0x00, 0x07, 0x00, 0x00, 0x00, 0x04, 0x00, 0x00, 0x00,
  0xc8, 0xcf, 0xff, 0xff, 0x14, 0x00, 0x00, 0x00, 0x11, 0x00, 0x00, 0x00,
  0x18, 0x00, 0x00, 0x00, 0x5c, 0x00, 0x00, 0x00, 0x4c, 0x00, 0x00, 0x00,
  0x02, 0x00, 0x00, 0x00, 0x01, 0x00, 0x00, 0x00, 0x04, 0x00, 0x00, 0x00,
  0x34, 0x00, 0x00, 0x00, 0x73, 0x65, 0x71, 0x75, 0x65, 0x6e, 0x74, 0x69,
  0x61, 0x6c, 0x2f, 0x64, 0x65, 0x6e, 0x73, 0x65, 0x5f, 0x31, 0x2f, 0x4d,
  0x61, 0x74, 0x4d, 0x75, 0x6c, 0x3b, 0x73, 0x65, 0x71, 0x75, 0x65, 0x6e,
  0x74, 0x69, 0x61, 0x6c, 0x2f, 0x64, 0x65, 0x6e, 0x73, 0x65, 0x5f, 0x31,
  0x2f, 0x42, 0x69, 0x61, 0x73, 0x41, 0x64, 0x64, 0x00, 0x00, 0x00, 0x00,
  0x02, 0x00, 0x00, 0x00, 0xff, 0xff, 0xff, 0xff, 0x04, 0x00, 0x00, 0x00,
  0xc8, 0xcf, 0xff, 0xff, 0xda, 0xfc, 0xff, 0xff, 0x00, 0x00, 0x00, 0x08,
  0x03, 0x00, 0x00, 0x00, 0x24, 0x00, 0x00, 0x00, 0x18, 0x00, 0x00, 0x00,
  0x0c, 0x00, 0x00, 0x00, 0x00, 0x00, 0x06, 0x00, 0x08, 0x00, 0x07, 0x00,
  0x06, 0x00, 0x00, 0x00, 0x00, 0x00, 0x00, 0x01, 0x01, 0x00, 0x00, 0x00,
  0x0f, 0x00, 0x00, 0x00, 0x03, 0x00, 0x00, 0x00, 0x0e, 0x00, 0x00, 0x00,
  0x06, 0x00, 0x00, 0x00, 0x03, 0x00, 0x00, 0x00, 0xe8, 0xfb, 0xff, 0xff,
  0x09, 0x00, 0x00, 0x00, 0x00, 0x00, 0x00, 0x09, 0x01, 0x00, 0x00, 0x00,
  0x88, 0xd0, 0xff, 0xff, 0x14, 0x00, 0x00, 0x00, 0x10, 0x00, 0x00, 0x00,
  0x18, 0x00, 0x00, 0x00, 0x6c, 0x00, 0x00, 0x00, 0x5c, 0x00, 0x00, 0x00,
  0x02, 0x00, 0x00, 0x00, 0x01, 0x00, 0x00, 0x00, 0x10, 0x00, 0x00, 0x00,
  0x46, 0x00, 0x00, 0x00, 0x73, 0x65, 0x71, 0x75, 0x65, 0x6e, 0x74, 0x69,
  0x61, 0x6c, 0x2f, 0x64, 0x65, 0x6e, 0x73, 0x65, 0x2f, 0x4d, 0x61, 0x74,
  0x4d, 0x75, 0x6c, 0x3b, 0x73, 0x65, 0x71, 0x75, 0x65, 0x6e, 0x74, 0x69,
  0x61, 0x6c, 0x2f, 0x64, 0x65, 0x6e, 0x73, 0x65, 0x2f, 0x52, 0x65, 0x6c,
  0x75, 0x3b, 0x73, 0x65, 0x71, 0x75, 0x65, 0x6e, 0x74, 0x69, 0x61, 0x6c,
  0x2f, 0x64, 0x65, 0x6e, 0x73, 0x65, 0x2f, 0x42, 0x69, 0x61, 0x73, 0x41,
  0x64, 0x64, 0x00, 0x00, 0x02, 0x00, 0x00, 0x00, 0xff, 0xff, 0xff, 0xff,
  0x10, 0x00, 0x00, 0x00, 0xa8, 0xd1, 0xff, 0xff, 0x00, 0x00, 0x0a, 0x00,
  0x10, 0x00, 0x04, 0x00, 0x08, 0x00, 0x0c, 0x00, 0x0a, 0x00, 0x00, 0x00,
  0x02, 0x00, 0x00, 0x00, 0x10, 0x00, 0x00, 0x00, 0x04, 0x00, 0x00, 0x00,
  0x01, 0x00, 0x00, 0x00, 0x0e, 0x00, 0x00, 0x00, 0x02, 0x00, 0x00, 0x00,
  0x0d, 0x00, 0x00, 0x00, 0x05, 0x00, 0x00, 0x00, 0xa8, 0xfc, 0xff, 0xff,
  0x16, 0x00, 0x00, 0x00, 0x00, 0x00, 0x00, 0x16, 0x01, 0x00, 0x00, 0x00,
  0x48, 0xd1, 0xff, 0xff, 0x14, 0x00, 0x00, 0x00, 0x0f, 0x00, 0x00, 0x00,
  0x18, 0x00, 0x00, 0x00, 0x40, 0x00, 0x00, 0x00, 0x30, 0x00, 0x00, 0x00,
  0x02, 0x00, 0x00, 0x00, 0x01, 0x00, 0x00, 0x00, 0x70, 0x00, 0x00, 0x00,
  0x1a, 0x00, 0x00, 0x00, 0x73, 0x65, 0x71, 0x75, 0x65, 0x6e, 0x74, 0x69,
  0x61, 0x6c, 0x2f, 0x66, 0x6c, 0x61, 0x74, 0x74, 0x65, 0x6e, 0x2f, 0x52,
  0x65, 0x73, 0x68, 0x61, 0x70, 0x65, 0x00, 0x00, 0x02, 0x00, 0x00, 0x00,
  0xff, 0xff, 0xff, 0xff, 0x70, 0x00, 0x00, 0x00, 0x2c, 0xd1, 0xff, 0xff,
  0x3e, 0xfe, 0xff, 0xff, 0x00, 0x00, 0x00, 0x05, 0x01, 0x00, 0x00, 0x00,
  0x38, 0x00, 0x00, 0x00, 0x2c, 0x00, 0x00, 0x00, 0x14, 0x00, 0x00, 0x00,
  0x00, 0x00, 0x0e, 0x00, 0x14, 0x00, 0x00, 0x00, 0x10, 0x00, 0x0c, 0x00,
  0x08, 0x00, 0x04, 0x00, 0x0e, 0x00, 0x00, 0x00, 0x03, 0x00, 0x00, 0x00,
  0x01, 0x00, 0x00, 0x00, 0x03, 0x00, 0x00, 0x00, 0x01, 0x00, 0x00, 0x00,
  0x01, 0x00, 0x00, 0x00, 0x0d, 0x00, 0x00, 0x00, 0x01, 0x00, 0x00, 0x00,
  0x0c, 0x00, 0x00, 0x00, 0xe8, 0xd1, 0xff, 0xff, 0x14, 0x00, 0x00, 0x00,
  0x0e, 0x00, 0x00, 0x00, 0x20, 0x00, 0x00, 0x00, 0x58, 0x00, 0x00, 0x00,
  0x40, 0x00, 0x00, 0x00, 0x04, 0x00, 0x00, 0x00, 0x01, 0x00, 0x00, 0x00,
  0x07, 0x00, 0x00, 0x00, 0x01, 0x00, 0x00, 0x00, 0x10, 0x00, 0x00, 0x00,
  0x22, 0x00, 0x00, 0x00, 0x73, 0x65, 0x71, 0x75, 0x65, 0x6e, 0x74, 0x69,
  0x61, 0x6c, 0x2f, 0x6d, 0x61, 0x78, 0x5f, 0x70, 0x6f, 0x6f, 0x6c, 0x69,
  0x6e, 0x67, 0x32, 0x64, 0x5f, 0x31, 0x2f, 0x4d, 0x61, 0x78, 0x50, 0x6f,
  0x6f, 0x6c, 0x00, 0x00, 0x04, 0x00, 0x00, 0x00, 0xff, 0xff, 0xff, 0xff,
  0x07, 0x00, 0x00, 0x00, 0x01, 0x00, 0x00, 0x00, 0x10, 0x00, 0x00, 0x00,
  0xe4, 0xd1, 0xff, 0xff, 0x1a, 0xfe, 0xff, 0xff, 0x00, 0x00, 0x00, 0x01,
  0x24, 0x00, 0x00, 0x00, 0x18, 0x00, 0x00, 0x00, 0x04, 0x00, 0x00, 0x00,
  0x0c, 0xfe, 0xff, 0xff, 0x01, 0x00, 0x00, 0x00, 0x01, 0x00, 0x00, 0x00,
  0x00, 0x00, 0x00, 0x01, 0x01, 0x00, 0x00, 0x00, 0x0c, 0x00, 0x00, 0x00,
  0x03, 0x00, 0x00, 0x00, 0x0b, 0x00, 0x00, 0x00, 0x09, 0x00, 0x00, 0x00,
  0x02, 0x00, 0x00, 0x00, 0x90, 0xd2, 0xff, 0xff, 0x14, 0x00, 0x00, 0x00,
  0x0d, 0x00, 0x00, 0x00, 0x20, 0x00, 0x00, 0x00, 0xb8, 0x00, 0x00, 0x00,
  0xa0, 0x00, 0x00, 0x00, 0x04, 0x00, 0x00, 0x00, 0x01, 0x00, 0x00, 0x00,
  0x15, 0x00, 0x00, 0x00, 0x01, 0x00, 0x00, 0x00, 0x10, 0x00, 0x00, 0x00,
  0x83, 0x00, 0x00, 0x00, 0x73, 0x65, 0x71, 0x75, 0x65, 0x6e, 0x74, 0x69,
  0x61, 0x6c, 0x2f, 0x63, 0x6f, 0x6e, 0x76, 0x32, 0x64, 0x5f, 0x31, 0x2f,
  0x52, 0x65, 0x6c, 0x75, 0x3b, 0x73, 0x65, 0x71, 0x75, 0x65, 0x6e, 0x74,
  0x69, 0x61, 0x6c, 0x2f, 0x63, 0x6f, 0x6e, 0x76, 0x32, 0x64, 0x5f, 0x31,
  0x2f, 0x42, 0x69, 0x61, 0x73, 0x41, 0x64, 0x64, 0x3b, 0x73, 0x65, 0x71,
  0x75, 0x65, 0x6e, 0x74, 0x69, 0x61, 0x6c, 0x2f, 0x63, 0x6f, 0x6e, 0x76,
  0x32, 0x64, 0x5f, 0x31, 0x2f, 0x43, 0x6f, 0x6e, 0x76, 0x32, 0x44, 0x3b,
  0x73, 0x65, 0x71, 0x75, 0x65, 0x6e, 0x74, 0x69, 0x61, 0x6c, 0x2f, 0x63,
  0x6f, 0x6e, 0x76, 0x32, 0x64, 0x5f, 0x31, 0x2f, 0x42, 0x69, 0x61, 0x73,
  0x41, 0x64, 0x64, 0x2f, 0x52, 0x65, 0x61, 0x64, 0x56, 0x61, 0x72, 0x69,
  0x61, 0x62, 0x6c, 0x65, 0x4f, 0x70, 0x2f, 0x72, 0x65, 0x73, 0x6f, 0x75,
  0x72, 0x63, 0x65, 0x00, 0x04, 0x00, 0x00, 0x00, 0xff, 0xff, 0xff, 0xff,
  0x15, 0x00, 0x00, 0x00, 0x01, 0x00, 0x00, 0x00, 0x10, 0x00, 0x00, 0x00,
  0xfc, 0xd3, 0xff, 0xff, 0x00, 0x00, 0x0e, 0x00, 0x1a, 0x00, 0x08, 0x00,
  0x0c, 0x00, 0x10, 0x00, 0x07, 0x00, 0x14, 0x00, 0x0e, 0x00, 0x00, 0x00,
  0x00, 0x00, 0x00, 0x05, 0x01, 0x00, 0x00, 0x00, 0x3c, 0x00, 0x00, 0x00,
  0x30, 0x00, 0x00, 0x00, 0x14, 0x00, 0x00, 0x00, 0x00, 0x00, 0x0e, 0x00,
  0x18, 0x00, 0x17, 0x00, 0x10, 0x00, 0x0c, 0x00, 0x08, 0x00, 0x04, 0x00,
  0x0e, 0x00, 0x00, 0x00, 0x03, 0x00, 0x00, 0x00, 0x03, 0x00, 0x00, 0x00,
  0x03, 0x00, 0x00, 0x00, 0x03, 0x00, 0x00, 0x00, 0x00, 0x00, 0x00, 0x01,
  0x01, 0x00, 0x00, 0x00, 0x0b, 0x00, 0x00, 0x00, 0x01, 0x00, 0x00, 0x00,
  0x0a, 0x00, 0x00, 0x00, 0x2c, 0xff, 0xff, 0xff, 0x11, 0x00, 0x00, 0x00,
  0x00, 0x00, 0x00, 0x11, 0x01, 0x00, 0x00, 0x00, 0xcc, 0xd3, 0xff, 0xff,
  0x14, 0x00, 0x00, 0x00, 0x0c, 0x00, 0x00, 0x00, 0x20, 0x00, 0x00, 0x00,
  0x58, 0x00, 0x00, 0x00, 0x40, 0x00, 0x00, 0x00, 0x04, 0x00, 0x00, 0x00,
  0x01, 0x00, 0x00, 0x00, 0x15, 0x00, 0x00, 0x00, 0x01, 0x00, 0x00, 0x00,
  0x08, 0x00, 0x00, 0x00, 0x20, 0x00, 0x00, 0x00, 0x73, 0x65, 0x71, 0x75,
  0x65, 0x6e, 0x74, 0x69, 0x61, 0x6c, 0x2f, 0x6d, 0x61, 0x78, 0x5f, 0x70,
  0x6f, 0x6f, 0x6c, 0x69, 0x6e, 0x67, 0x32, 0x64, 0x2f, 0x4d, 0x61, 0x78,
  0x50, 0x6f, 0x6f, 0x6c, 0x00, 0x00, 0x00, 0x00, 0x04, 0x00, 0x00, 0x00,
  0xff, 0xff, 0xff, 0xff, 0x15, 0x00, 0x00, 0x00, 0x01, 0x00, 0x00, 0x00,
  0x08, 0x00, 0x00, 0x00, 0xd8, 0xd4, 0xff, 0xff, 0x00, 0x00, 0x0e, 0x00,
  0x14, 0x00, 0x00, 0x00, 0x08, 0x00, 0x0c, 0x00, 0x07, 0x00, 0x10, 0x00,
  0x0e, 0x00, 0x00, 0x00, 0x00, 0x00, 0x00, 0x01, 0x30, 0x00, 0x00, 0x00,
  0x24, 0x00, 0x00, 0x00, 0x10, 0x00, 0x00, 0x00, 0x0c, 0x00, 0x10, 0x00,
  0x00, 0x00, 0x04, 0x00, 0x08, 0x00, 0x0f, 0x00, 0x0c, 0x00, 0x00, 0x00,
  0x01, 0x00, 0x00, 0x00, 0x01, 0x00, 0x00, 0x00, 0x00, 0x00, 0x00, 0x01,
  0x01, 0x00, 0x00, 0x00, 0x0a, 0x00, 0x00, 0x00, 0x03, 0x00, 0x00, 0x00,
  0x00, 0x00, 0x00, 0x00, 0x08, 0x00, 0x00, 0x00, 0x01, 0x00, 0x00, 0x00,
  0x0c, 0x00, 0x10, 0x00, 0x0b, 0x00, 0x00, 0x00, 0x0c, 0x00, 0x04, 0x00,
  0x0c, 0x00, 0x00, 0x00, 0x03, 0x00, 0x00, 0x00, 0x00, 0x00, 0x00, 0x03,
  0x01, 0x00, 0x00, 0x00, 0xac, 0xd4, 0xff, 0xff, 0x14, 0x00, 0x00, 0x00,
  0x0b, 0x00, 0x00, 0x00, 0x20, 0x00, 0x00, 0x00, 0xb0, 0x00, 0x00, 0x00,
  0x98, 0x00, 0x00, 0x00, 0x04, 0x00, 0x00, 0x00, 0x01, 0x00, 0x00, 0x00,
  0x40, 0x00, 0x00, 0x00, 0x03, 0x00, 0x00, 0x00, 0x08, 0x00, 0x00, 0x00,
  0x7b, 0x00, 0x00, 0x00, 0x73, 0x65, 0x71, 0x75, 0x65, 0x6e, 0x74, 0x69,
  0x61, 0x6c, 0x2f, 0x63, 0x6f, 0x6e, 0x76, 0x32, 0x64, 0x2f, 0x52, 0x65,
  0x6c, 0x75, 0x3b, 0x73, 0x65, 0x71, 0x75, 0x65, 0x6e, 0x74, 0x69, 0x61,
  0x6c, 0x2f, 0x63, 0x6f, 0x6e, 0x76, 0x32, 0x64, 0x2f, 0x42, 0x69, 0x61,
  0x73, 0x41, 0x64, 0x64, 0x3b, 0x73, 0x65, 0x71, 0x75, 0x65, 0x6e, 0x74,
  0x69, 0x61, 0x6c, 0x2f, 0x63, 0x6f, 0x6e, 0x76, 0x32, 0x64, 0x2f, 0x43,
  0x6f, 0x6e, 0x76, 0x32, 0x44, 0x3b, 0x73, 0x65, 0x71, 0x75, 0x65, 0x6e,
  0x74, 0x69, 0x61, 0x6c, 0x2f, 0x63, 0x6f, 0x6e, 0x76, 0x32, 0x64, 0x2f,
  0x42, 0x69, 0x61, 0x73, 0x41, 0x64, 0x64, 0x2f, 0x52, 0x65, 0x61, 0x64,
  0x56, 0x61, 0x72, 0x69, 0x61, 0x62, 0x6c, 0x65, 0x4f, 0x70, 0x2f, 0x72,
  0x65, 0x73, 0x6f, 0x75, 0x72, 0x63, 0x65, 0x00, 0x04, 0x00, 0x00, 0x00,
  0xff, 0xff, 0xff, 0xff, 0x40, 0x00, 0x00, 0x00, 0x03, 0x00, 0x00, 0x00,
  0x08, 0x00, 0x00, 0x00, 0x00, 0xd5, 0xff, 0xff, 0x0a, 0xd6, 0xff, 0xff,
  0x04, 0x00, 0x00, 0x00, 0x00, 0x08, 0x00, 0x00, 0x7d, 0x93, 0xc7, 0x3c,
  0x27, 0xfe, 0x46, 0xbe, 0xd0, 0x27, 0x99, 0xbd, 0x9a, 0xbe, 0xbb, 0xbd,
  0xca, 0x8a, 0x07, 0x3e, 0x93, 0x8e, 0x2b, 0xbe, 0x45, 0xe1, 0x1f, 0x3e,
  0x04, 0xd2, 0x4a, 0xbe, 0x12, 0x50, 0x62, 0xbd, 0x10, 0xc3, 0x8f, 0x3e,
  0xa4, 0x05, 0xd8, 0x3e, 0x61, 0x9f, 0xbe, 0x3c, 0xc2, 0xdc, 0x6f, 0x3e,
  0xd0, 0x0c, 0x2f, 0xbe, 0x3f, 0x6a, 0x46, 0x3d, 0x6b, 0x17, 0xba, 0x3e,
  0x1e, 0x21, 0x06, 0x3c, 0xc1, 0x79, 0xb8, 0x3d, 0xe5, 0x32, 0xb0, 0x3c,
  0x42, 0x9d, 0x29, 0xbe, 0xeb, 0x19, 0x70, 0x3d, 0x78, 0x4c, 0x53, 0xbe,
  0xe7, 0xa1, 0xcd, 0x3e, 0xd9, 0xfb, 0xf0, 0xbb, 0x0e, 0x42, 0xf7, 0xbd,
  0xf7, 0xcf, 0x41, 0xbd, 0x1e, 0x0b, 0x5c, 0xbd, 0x99, 0x91, 0x1c, 0xbe,
  0xfc, 0x6e, 0xff, 0x3d, 0xfa, 0x5d, 0x1e, 0xbe, 0x09, 0xc2, 0x5e, 0x3e,
  0x44, 0x96, 0x2e, 0xbe, 0x90, 0x5e, 0x60, 0xbe, 0x41, 0x76, 0x3f, 0xbd,
  0x2a, 0x20, 0xf2, 0xbd, 0x45, 0xa9, 0x71, 0xbc, 0x82, 0x73, 0xb3, 0xbe,
  0x3d, 0xb2, 0xd8, 0xbe, 0xca, 0x26, 0x91, 0x3e, 0x59, 0xae, 0x71, 0x3c,
  0xeb, 0xcc, 0x19, 0xbf, 0xd7, 0xf3, 0x17, 0xbf, 0x85, 0xf5, 0x2d, 0xbf,
  0xda, 0x53, 0xd6, 0xbe, 0x41, 0x85, 0xce, 0xbd, 0x7a, 0x41, 0x3b, 0xbf,
  0x70, 0x51, 0xff, 0x3d, 0xdb, 0x79, 0x09, 0x3e, 0xb1, 0x08, 0x28, 0x3d,
  0x80, 0x67, 0xc1, 0x3c, 0xaa, 0x7f, 0x9d, 0x3d, 0xf0, 0x01, 0xca, 0xbb,
  0xee, 0x23, 0xd9, 0x3e, 0xbe, 0x52, 0x14, 0xbd, 0xd3, 0x6f, 0xc3, 0x3d,
  0x39, 0xe6, 0x7c, 0xbe, 0x10, 0x94, 0x4d, 0x3e, 0x6c, 0xfd, 0xae, 0x3d,
  0x8b, 0x9b, 0x86, 0x3d, 0x95, 0xa7, 0xae, 0x3d, 0x47, 0x1b, 0x8c, 0xbc,
  0xfb, 0x1b, 0x03, 0xbd, 0x5f, 0xc3, 0x6a, 0xbd, 0x87, 0x5f, 0xfe, 0xbd,
  0x5c, 0x24, 0x55, 0xbe, 0x11, 0xc9, 0x40, 0x3e, 0x3c, 0xc8, 0x8c, 0xbd,
  0x3f, 0x90, 0xd2, 0x3e, 0xb9, 0x54, 0x1b, 0x3e, 0x82, 0x86, 0xf4, 0x3d,
  0xe5, 0x2b, 0x29, 0xbc, 0x61, 0xc2, 0xde, 0x3a, 0x76, 0xe5, 0x9e, 0xbe,
  0x47, 0x99, 0x71, 0xbd, 0x39, 0xe3, 0x56, 0xbe, 0x9e, 0xcc, 0x29, 0xbe,
  0x64, 0x64, 0x89, 0x3e, 0x7b, 0x39, 0x9a, 0xbd, 0x04, 0x61, 0xbe, 0x3e,
  0xeb, 0xb3, 0xee, 0x3c, 0xc4, 0x93, 0xd9, 0xbe, 0x69, 0xe2, 0x9d, 0x3d,
  0xc3, 0x2f, 0x38, 0xbc, 0x28, 0x0b, 0xa2, 0xbd, 0x4c, 0x9e, 0x2d, 0x3d,
  0xc0, 0xca, 0xd2, 0xbd, 0x0f, 0xe8, 0x32, 0x3e, 0x19, 0xbb, 0xd7, 0xbc,
  0x9b, 0xa3, 0xcd, 0xbe, 0x1b, 0xe2, 0x15, 0xbe, 0x8c, 0x75, 0x2b, 0x3d,
  0x0e, 0x1a, 0xb2, 0xbe, 0x21, 0x50, 0x17, 0x3e, 0xfa, 0x39, 0x24, 0xbc,
  0x2a, 0x54, 0xe8, 0x3d, 0x58, 0xf4, 0x46, 0xbc, 0xf4, 0x64, 0x48, 0xbe,
  0x80, 0xcb, 0x9a, 0xbd, 0xa8, 0x4b, 0x3a, 0xbc, 0xf1, 0xe5, 0x9e, 0xbe,
  0xb4, 0x71, 0x8f, 0x3d, 0x53, 0xdf, 0x0d, 0xbe, 0x2c, 0xcc, 0x2f, 0x3e,
  0x3d, 0xf3, 0x63, 0xba, 0xe0, 0x1a, 0x1c, 0xbe, 0x89, 0x77, 0x49, 0xbe,
  0x6c, 0xa4, 0x53, 0xbe, 0x5e, 0xe1, 0xfa, 0xbd, 0xfc, 0x0b, 0x6d, 0x3e,
  0xb9, 0x1e, 0x29, 0x3e, 0xfb, 0xb2, 0x0f, 0x3d, 0xf6, 0x85, 0x3e, 0x3b,
  0x6f, 0x04, 0x65, 0xbe, 0xe2, 0x43, 0x19, 0xbe, 0x2c, 0xb5, 0x19, 0xbe,
  0xd2, 0xcc, 0x4c, 0x3e, 0x3d, 0x5d, 0x36, 0xbe, 0x9d, 0x84, 0xfa, 0x3c,
  0x71, 0x2d, 0xcd, 0x3e, 0x42, 0x3d, 0x82, 0x3e, 0x5a, 0x1a, 0x45, 0xbe,
  0x89, 0x54, 0xb3, 0xbd, 0x28, 0xab, 0x70, 0xbe, 0xda, 0x3b, 0xe6, 0xbc,
  0x6f, 0x08, 0xa7, 0x3e, 0x4e, 0xf8, 0x23, 0x3d, 0xcc, 0x22, 0x77, 0x3e,
  0x60, 0x92, 0xe0, 0x3e, 0xd0, 0x34, 0x90, 0xbd, 0x7b, 0x7b, 0x8b, 0x3e,
  0xed, 0x7c, 0x6d, 0x3d, 0x5a, 0x05, 0xa2, 0x3e, 0x84, 0x0a, 0x8b, 0xbd,
  0x8e, 0x5f, 0x8c, 0x3d, 0x3c, 0x86, 0x47, 0x3f, 0x81, 0xb7, 0xab, 0x3c,
  0x1a, 0xc1, 0x66, 0xbe, 0x95, 0xdf, 0x3b, 0xbe, 0x05, 0x4f, 0x26, 0xbe,
  0x9e, 0xd3, 0x9e, 0xbd, 0xa4, 0x83, 0x94, 0xbe, 0x94, 0x76, 0x62, 0xba,
  0x13, 0xb0, 0x8d, 0xbe, 0x0f, 0xc2, 0x6f, 0x3a, 0x37, 0x7e, 0xf6, 0xbe,
  0xc4, 0x6b, 0x98, 0xbe, 0xba, 0xdd, 0xaa, 0xbe, 0x6c, 0xda, 0x1c, 0xbe,
  0xcf, 0x01, 0x61, 0xbe, 0x30, 0xb7, 0x99, 0xbc, 0x76, 0x0c, 0x95, 0xbe,
  0x32, 0xd0, 0x21, 0xbb, 0x6d, 0x25, 0xdf, 0xbe, 0x50, 0x64, 0x24, 0xbf,
  0x2b, 0x9d, 0x66, 0xbe, 0x39, 0x60, 0x6e, 0xbe, 0xb8, 0x27, 0x9f, 0xbe,
  0x09, 0x21, 0x23, 0xbe, 0x1a, 0xd8, 0xe6, 0xbe, 0x06, 0xa6, 0x01, 0xbd,
  0x58, 0x60, 0x16, 0x3e, 0xb8, 0xcd, 0x5e, 0x3d, 0x33, 0xba, 0xc5, 0x3b,
  0xdf, 0xdf, 0x39, 0xbd, 0xfd, 0xb2, 0x18, 0xbe, 0xfe, 0xd8, 0xae, 0xbe,
  0x52, 0xff, 0xa7, 0xbc, 0x8d, 0x82, 0x17, 0x3e, 0x15, 0x2a, 0xc6, 0xbe,
  0x29, 0xe0, 0xc2, 0xbe, 0x57, 0x72, 0xd4, 0xbe, 0xfa, 0xff, 0x62, 0xbe,
  0xbd, 0xde, 0xad, 0xbe, 0xcf, 0x59, 0x0a, 0xbf, 0xf3, 0x40, 0x36, 0x3f,
  0xe0, 0xd1, 0xe1, 0x3e, 0x3f, 0x31, 0x7f, 0xbd, 0x73, 0xda, 0x6b, 0xbd,
  0x97, 0x57, 0xff, 0xbd, 0x8e, 0xa9, 0x27, 0xbe, 0x63, 0x3d, 0xca, 0x3d,
  0xa3, 0x53, 0xdc, 0xbd, 0x89, 0xcf, 0x73, 0x3e, 0x97, 0xf6, 0x95, 0xbe,
  0x51, 0x8a, 0x2d, 0x3d, 0x11, 0xe0, 0xdc, 0x3d, 0x74, 0x65, 0x09, 0x3e,
  0xb6, 0x83, 0x3c, 0x3a, 0xa0, 0x41, 0xd8, 0x3e, 0x89, 0x68, 0x2c, 0xbd,
  0x18, 0xe3, 0x95, 0xbd, 0x5c, 0xd2, 0x30, 0xbe, 0xee, 0x2e, 0xa1, 0xbc,
  0xd4, 0x0c, 0x24, 0x3f, 0xab, 0xc0, 0x97, 0x3e, 0x74, 0x2b, 0x6c, 0x3e,
  0xcd, 0xc1, 0x97, 0x3d, 0x51, 0xaa, 0xd4, 0x3d, 0x2d, 0x4d, 0x85, 0xbd,
  0xec, 0x45, 0xe0, 0xbd, 0x6d, 0x6f, 0x7e, 0x3c, 0xda, 0xa8, 0x97, 0xbd,
  0xe6, 0x57, 0x9c, 0xbc, 0xda, 0xed, 0x2a, 0x3d, 0xcc, 0x13, 0xde, 0x3d,
  0x64, 0x2d, 0x8d, 0x3d, 0x53, 0x42, 0x58, 0x3e, 0xdb, 0x71, 0xb1, 0xbd,
  0x39, 0xbc, 0x85, 0xbd, 0x25, 0x24, 0x5c, 0xbe, 0x1a, 0x10, 0xab, 0xbd,
  0x03, 0x61, 0x41, 0xbe, 0x3b, 0x91, 0xca, 0xbe, 0xa7, 0x71, 0xe8, 0xbd,
  0x48, 0xe9, 0x97, 0x3d, 0x9c, 0xf5, 0x8f, 0x3d, 0x11, 0x58, 0x23, 0xbe,
  0xf7, 0x0e, 0xba, 0xbe, 0xb8, 0xdf, 0x18, 0xbe, 0x7c, 0x2e, 0x82, 0xbe,
  0x7b, 0x7d, 0x14, 0xbf, 0x04, 0x91, 0x34, 0xbe, 0xdf, 0xcc, 0x81, 0xbd,
  0x6b, 0x5a, 0x9a, 0xba, 0xf7, 0x97, 0x1e, 0x3d, 0x5f, 0x6c, 0x83, 0xbd,
  0xca, 0x47, 0x0d, 0xbd, 0x6a, 0x8f, 0x24, 0xbe, 0xd2, 0xf2, 0xba, 0xbe,
  0xe3, 0xb9, 0x15, 0xbd, 0x3d, 0xbf, 0x07, 0xbd, 0xa8, 0x62, 0x2d, 0xbe,
  0xc4, 0xfa, 0xab, 0xbe, 0x51, 0x91, 0x7e, 0xbe, 0x78, 0x42, 0x58, 0xbe,
  0x86, 0x89, 0x46, 0xbe, 0xc0, 0x7c, 0x66, 0xbf, 0xf9, 0x39, 0xc5, 0xbc,
  0xc7, 0x94, 0xa2, 0xbd, 0x85, 0xa4, 0x65, 0x3c, 0xb4, 0xad, 0xb1, 0xbe,
  0x97, 0x61, 0x52, 0xbe, 0xcd, 0x85, 0x01, 0xbe, 0x44, 0xe8, 0x3c, 0xbe,
  0x62, 0x8a, 0x88, 0xbd, 0x85, 0x51, 0x17, 0xbc, 0x0c, 0x08, 0xb5, 0x3e,
  0xba, 0x2d, 0xe5, 0xbd, 0x42, 0x7d, 0x63, 0x3d, 0x89, 0x6d, 0xf5, 0xbb,
  0x70, 0x76, 0xe1, 0x3c, 0x4e, 0x6b, 0x81, 0xbd, 0xa5, 0xc4, 0xcf, 0xbd,
  0xab, 0x15, 0x30, 0xbd, 0x18, 0x7e, 0x35, 0x3f, 0xb3, 0x07, 0xb1, 0x3e,
  0xfa, 0x08, 0xdd, 0x3e, 0x04, 0x59, 0x51, 0x3d, 0x7a, 0x91, 0x42, 0xbc,
  0xc2, 0xe8, 0x7b, 0xbd, 0x11, 0x8e, 0xb5, 0xbc, 0x02, 0x2e, 0x28, 0xbe,
  0x83, 0xe5, 0x67, 0x3e, 0xf3, 0xa3, 0x34, 0xbe, 0x00, 0xd6, 0x77, 0xbd,
  0x68, 0xa0, 0xc6, 0xbb, 0xab, 0x74, 0x71, 0xbd, 0x2f, 0xf3, 0x0d, 0xbe,
  0xe2, 0x82, 0xd3, 0x3d, 0x4e, 0x68, 0xe3, 0x3e, 0x4a, 0x52, 0xad, 0x3e,
  0x8f, 0x23, 0x50, 0xbe, 0x81, 0x03, 0x09, 0xbd, 0x42, 0xf3, 0xc3, 0x3c,
  0x58, 0xe6, 0x86, 0xbd, 0x8c, 0x64, 0x8c, 0xbd, 0x4c, 0x60, 0x10, 0xbc,
  0x52, 0xc4, 0xff, 0xbd, 0x4f, 0x1d, 0x5b, 0x3e, 0x9d, 0xfd, 0xc2, 0xbc,
  0xc0, 0x81, 0xfa, 0xbd, 0x91, 0x92, 0x4d, 0xbe, 0x90, 0xa4, 0xe6, 0xbd,
  0x53, 0x99, 0x08, 0xbe, 0xd6, 0x28, 0x89, 0xbe, 0xfd, 0x87, 0x17, 0xbe,
  0xef, 0x43, 0x23, 0xbe, 0x97, 0xc1, 0xab, 0x3d, 0x18, 0xe7, 0xad, 0xbd,
  0x4b, 0x23, 0x82, 0xbc, 0xa1, 0xe5, 0x34, 0xbd, 0x24, 0x2b, 0x17, 0x3d,
  0x79, 0x87, 0x49, 0xbd, 0x9f, 0x8c, 0x13, 0x3e, 0x2a, 0x4f, 0x91, 0xbe,
  0x42, 0x28, 0x09, 0xbe, 0x88, 0x4e, 0x00, 0x3e, 0x8d, 0x0d, 0x0c, 0x3c,
  0x27, 0x5a, 0x80, 0xbd, 0xbc, 0x03, 0xf2, 0x3e, 0x6d, 0x6f, 0x0e, 0xbe,
  0x30, 0xec, 0xd9, 0x3a, 0x42, 0x62, 0x02, 0xbe, 0x27, 0x41, 0x57, 0xbe,
  0x5b, 0x76, 0x24, 0xbe, 0x1d, 0xd4, 0x87, 0x3c, 0xc8, 0x91, 0x1a, 0xbe,
  0x41, 0x15, 0xe1, 0xbc, 0xa6, 0x87, 0x51, 0x3d, 0x10, 0x7e, 0xcd, 0x3d,
  0x41, 0x19, 0xd6, 0xbd, 0xbd, 0x7d, 0x01, 0xbe, 0xfb, 0x84, 0x06, 0xbe,
  0xd8, 0x74, 0xfd, 0x3d, 0x5d, 0x8b, 0x00, 0xbe, 0x5c, 0x8a, 0x2d, 0xbe,
  0x89, 0xac, 0xfd, 0x3d, 0x3c, 0x91, 0x71, 0x3c, 0x79, 0x3c, 0x08, 0x3e,
  0x06, 0x8f, 0x91, 0x3d, 0x88, 0x7d, 0x9a, 0xbf, 0x66, 0xe6, 0xd4, 0xbe,
  0x7c, 0xf2, 0x71, 0x3e, 0x35, 0xf5, 0x1f, 0xbe, 0xdf, 0xa6, 0x76, 0xbf,
  0xed, 0xa0, 0xdc, 0xbc, 0x2e, 0x8f, 0x5f, 0x3c, 0x6d, 0x97, 0x79, 0xbf,
  0x8d, 0x21, 0x66, 0x3e, 0x71, 0x73, 0xe5, 0xbd, 0xb1, 0xd5, 0xef, 0xbc,
  0xbc, 0x70, 0x8a, 0xbc, 0x41, 0x9e, 0xbc, 0xbe, 0x9d, 0x98, 0x3c, 0x3e,
  0xe1, 0x08, 0x62, 0x3e, 0x14, 0x36, 0x36, 0xbf, 0xa4, 0x12, 0x78, 0xbe,
  0x55, 0xca, 0x14, 0xbd, 0xc7, 0x64, 0x8c, 0x3d, 0x95, 0x78, 0x09, 0x3e,
  0x54, 0xd3, 0x11, 0x3e, 0x76, 0xd9, 0x28, 0x3e, 0xf4, 0x54, 0x28, 0xbe,
  0xf1, 0x81, 0x3f, 0x3e, 0xf1, 0xb9, 0xa5, 0xbe, 0x5c, 0x88, 0xd3, 0x3d,
  0xae, 0x8f, 0x15, 0xbe, 0x45, 0xd7, 0xac, 0x3d, 0x51, 0x1a, 0x0d, 0xbe,
  0xce, 0x20, 0xa4, 0xbd, 0xb2, 0x14, 0x5a, 0x3e, 0xcf, 0x6a, 0x9a, 0xbe,
  0x15, 0x97, 0x0f, 0xbe, 0xf7, 0xe7, 0x0b, 0xbe, 0xd2, 0x7a, 0x28, 0xbe,
  0xce, 0xf2, 0x08, 0x3d, 0xeb, 0xf8, 0x2d, 0xbe, 0x02, 0x06, 0x5b, 0xbe,
  0xb2, 0xc2, 0x9a, 0xbe, 0x31, 0x33, 0xc6, 0xbd, 0x25, 0xd1, 0x28, 0xbd,
  0xd2, 0x91, 0xf3, 0x3d, 0x73, 0x1e, 0xe4, 0xbd, 0xc8, 0x9b, 0xa1, 0xbc,
  0x29, 0xf6, 0xd6, 0xbd, 0x50, 0x29, 0x93, 0xbc, 0xbc, 0x9b, 0x65, 0xbc,
  0x3b, 0xc8, 0x44, 0xbe, 0x40, 0x33, 0x65, 0x3c, 0x11, 0x52, 0x86, 0x3e,
  0xf7, 0x70, 0x68, 0xbd, 0xd5, 0x92, 0xd0, 0xbc, 0xa9, 0x3e, 0x49, 0x3e,
  0xf8, 0x6d, 0xbb, 0x3e, 0xc9, 0xa4, 0x08, 0x3f, 0xa6, 0x71, 0xe0, 0xbd,
  0x6f, 0x3d, 0x5b, 0xbd, 0xec, 0xfb, 0xfb, 0xbd, 0xd7, 0xf3, 0x39, 0xbd,
  0xb6, 0x90, 0x8c, 0xbb, 0x57, 0x72, 0x55, 0xbe, 0xb1, 0x84, 0x42, 0xbd,
  0xfc, 0xac, 0x62, 0xbd, 0x8b, 0x99, 0x21, 0xbe, 0xaa, 0x75, 0x38, 0xbe,
  0x93, 0xcc, 0xa4, 0xbe, 0x54, 0x6a, 0x2e, 0x3e, 0x97, 0xf0, 0x80, 0xbd,
  0x56, 0xb6, 0xdf, 0xbe, 0x00, 0xd7, 0x21, 0xbd, 0x30, 0x2b, 0xca, 0xbe,
  0xf3, 0x34, 0xbe, 0xbe, 0xfc, 0x0d, 0x07, 0x3e, 0xeb, 0xb8, 0x55, 0xbe,
  0x02, 0x5c, 0xa7, 0x3d, 0xed, 0x03, 0xa3, 0x3e, 0xae, 0x27, 0xd9, 0xbd,
  0x16, 0x9c, 0x32, 0x3d, 0xed, 0x11, 0x85, 0xbe, 0x70, 0xbc, 0x1e, 0xbe,
  0x11, 0x15, 0x19, 0xbd, 0x12, 0x08, 0xd9, 0x3d, 0x5d, 0x70, 0x73, 0x3d,
  0x57, 0x41, 0xad, 0xbd, 0x48, 0xb1, 0x72, 0x3e, 0x4b, 0x22, 0xe0, 0xbd,
  0x77, 0x49, 0x54, 0xbd, 0xd3, 0x51, 0xf8, 0x3d, 0x7e, 0x43, 0x05, 0xbe,
  0x67, 0xc8, 0xdb, 0xbd, 0x06, 0xe0, 0xd5, 0xbd, 0x3a, 0xb1, 0x7c, 0xbe,
  0xd8, 0xd7, 0x75, 0x3d, 0xcc, 0x33, 0xc7, 0x3e, 0x1c, 0xdd, 0x8c, 0xbe,
  0x85, 0xf6, 0xae, 0xbd, 0x52, 0xd7, 0x46, 0xbd, 0x57, 0x52, 0xa9, 0xbd,
  0xd8, 0x19, 0x48, 0xbd, 0x2e, 0xa2, 0x45, 0xbd, 0x7f, 0xec, 0x39, 0xbe,
  0xa2, 0x91, 0xd9, 0xbd, 0xc8, 0x10, 0x11, 0xbf, 0x4a, 0xfb, 0x87, 0xbd,
  0xeb, 0xe9, 0x93, 0xba, 0x9c, 0xa8, 0xcb, 0xbd, 0x21, 0x31, 0x3d, 0xbd,
  0xab, 0x53, 0x05, 0xbd, 0x74, 0xd2, 0x98, 0xbd, 0x6e, 0xe0, 0x0d, 0xbe,
  0xe2, 0xa3, 0x71, 0xbe, 0xae, 0xe3, 0xa6, 0xbd, 0xfb, 0x95, 0x56, 0xbb,
  0x5e, 0xb9, 0x6b, 0xbd, 0xad, 0x72, 0x3b, 0xbd, 0x01, 0xf3, 0x11, 0xbc,
  0x7b, 0x68, 0x65, 0x3c, 0xc4, 0x81, 0xd8, 0xbd, 0x1e, 0xc8, 0x57, 0x3e,
  0xc7, 0x4a, 0xa0, 0x3d, 0xe3, 0x91, 0x9e, 0x3c, 0x25, 0x17, 0xb5, 0x3e,
  0x4c, 0x60, 0x26, 0xbc, 0xe9, 0x76, 0xc1, 0xbc, 0x12, 0x0f, 0x48, 0x3e,
  0x0e, 0xba, 0x2c, 0x3e, 0x50, 0x0e, 0xee, 0x3e, 0x15, 0xbe, 0x4d, 0xbe,
  0x98, 0xe4, 0x29, 0xbe, 0x42, 0x13, 0x9d, 0xbd, 0x68, 0x80, 0x92, 0xbc,
  0xa8, 0xc3, 0x5a, 0xbe, 0xa0, 0x62, 0xcc, 0x3e, 0xe5, 0xe6, 0xbd, 0xbd,
  0x0c, 0x43, 0x0e, 0x3e, 0x63, 0xf8, 0xf4, 0x3e, 0x02, 0x21, 0x80, 0xbe,
  0x99, 0xd9, 0xf9, 0xbd, 0x14, 0x0a, 0x35, 0xbd, 0xbc, 0xc8, 0x82, 0xbe,
  0x9b, 0x47, 0xb5, 0x3d, 0x1f, 0x76, 0x32, 0xbe, 0x32, 0xe9, 0x9e, 0x3e,
  0xae, 0x97, 0x9b, 0x3e, 0xf1, 0x9f, 0x17, 0xbe, 0xbf, 0x3e, 0x2e, 0xbc,
  0x8f, 0xfd, 0xdf, 0x3d, 0x7a, 0xf7, 0x37, 0xbe, 0xf9, 0xb9, 0x74, 0x3e,
  0x05, 0x19, 0x5f, 0xbc, 0xc4, 0x01, 0x15, 0xbd, 0x81, 0x82, 0x31, 0xbd,
  0x00, 0xcf, 0x8f, 0x3c, 0x15, 0x48, 0x5b, 0x3e, 0x45, 0x1b, 0x4e, 0xbd,
  0xc2, 0x08, 0x09, 0xbe, 0x72, 0x78, 0x85, 0xbc, 0x90, 0x9f, 0x3b, 0x3d,
  0x01, 0x04, 0xf5, 0xbc, 0x0d, 0x58, 0xd8, 0x3c, 0x9d, 0x9f, 0xd5, 0xbd,
  0x48, 0xc7, 0x5d, 0xbe, 0xde, 0x25, 0x18, 0xbe, 0xe0, 0x7c, 0xf9, 0xbd,
  0xcf, 0x1d, 0x9e, 0xbe, 0xd8, 0x07, 0x3b, 0x3d, 0xc1, 0xc3, 0x13, 0x3e,
  0xe1, 0x2e, 0x02, 0xbe, 0x20, 0x5a, 0x48, 0xbe, 0xe4, 0x2e, 0x9c, 0xbe,
  0xc7, 0x91, 0x31, 0xbe, 0x35, 0xe4, 0x2c, 0xbe, 0x66, 0xbf, 0x80, 0xbe,
  0x7d, 0x68, 0x07, 0xbe, 0x62, 0x85, 0xf0, 0x3d, 0x20, 0xce, 0x18, 0xbd,
  0xac, 0x45, 0xcb, 0xbd, 0x09, 0xfd, 0x25, 0xbe, 0x11, 0x49, 0x56, 0xbd,
  0xb4, 0xb4, 0x09, 0xbe, 0x98, 0xf2, 0x86, 0x3e, 0xdb, 0x25, 0xa5, 0xbd,
  0x3e, 0x9a, 0xa1, 0x3e, 0xe6, 0x85, 0x86, 0x3e, 0x2e, 0xb0, 0x97, 0x3e,
  0x73, 0xf0, 0x51, 0x3c, 0xe8, 0x5c, 0x22, 0x3e, 0x3c, 0x35, 0xf2, 0x3e,
  0x25, 0xad, 0x8c, 0x3e, 0xc7, 0xad, 0x1d, 0xbd, 0x05, 0xe1, 0xbf, 0x3c,
  0xb6, 0xe0, 0x43, 0xbd, 0xe2, 0xdd, 0xff, 0xff, 0x10, 0x00, 0x00, 0x00,
  0x0a, 0x00, 0x00, 0x00, 0x1c, 0x00, 0x00, 0x00, 0x38, 0x00, 0x00, 0x00,
  0x04, 0x00, 0x00, 0x00, 0x10, 0x00, 0x00, 0x00, 0x04, 0x00, 0x00, 0x00,
  0x01, 0x00, 0x00, 0x00, 0x08, 0x00, 0x00, 0x00, 0x1a, 0x00, 0x00, 0x00,
  0x73, 0x65, 0x71, 0x75, 0x65, 0x6e, 0x74, 0x69, 0x61, 0x6c, 0x2f, 0x63,
  0x6f, 0x6e, 0x76, 0x32, 0x64, 0x5f, 0x31, 0x2f, 0x43, 0x6f, 0x6e, 0x76,
  0x32, 0x44, 0x00, 0x00, 0x58, 0xdd, 0xff, 0xff, 0x62, 0xde, 0xff, 0xff,
  0x04, 0x00, 0x00, 0x00, 0x80, 0x01, 0x00, 0x00, 0x93, 0xef, 0xa2, 0xbd,
  0x42, 0xdb, 0x91, 0xbe, 0xc6, 0x61, 0x44, 0x3d, 0x77, 0x95, 0x14, 0xbe,
  0x12, 0x2d, 0x8b, 0x3d, 0x98, 0xe2, 0x81, 0x3c, 0xf9, 0x50, 0x06, 0xbe,
  0x1e, 0xe2, 0x95, 0x3d, 0x6e, 0x84, 0x11, 0xbe, 0xbf, 0xa0, 0x40, 0xbe,
  0xf3, 0xc7, 0x8a, 0x3d, 0x66, 0x65, 0x26, 0xbe, 0xf5, 0x60, 0xb5, 0xbb,
  0x65, 0xf5, 0x08, 0x3e, 0xb1, 0x8c, 0x66, 0xbe, 0xdf, 0x7b, 0xbb, 0xbd,
  0xfe, 0xe7, 0xe8, 0x3c, 0x67, 0x6d, 0x67, 0xbe, 0x9e, 0x6d, 0x7e, 0x3c,
  0x32, 0xac, 0x50, 0xbe, 0xff, 0xa5, 0x5d, 0xbc, 0x91, 0x04, 0x0c, 0x3d,
  0x52, 0x8c, 0x32, 0xbe, 0xb0, 0x90, 0xca, 0x3d, 0x79, 0x27, 0xfb, 0xbc,
  0xcf, 0xfa, 0xf8, 0xbd, 0xaf, 0xc7, 0x12, 0xbd, 0xcc, 0x21, 0x26, 0x3d,
  0xe6, 0x3f, 0x26, 0xbe, 0x39, 0xbb, 0xb5, 0x3c, 0x88, 0xce, 0xb9, 0x3d,
  0x3b, 0x4d, 0x98, 0xbd, 0x94, 0x3b, 0x6e, 0xbd, 0xfc, 0x8e, 0xb4, 0xbd,
  0xe0, 0x08, 0x0b, 0xbe, 0xec, 0x53, 0x4c, 0xbd, 0x7e, 0xb5, 0x03, 0xbe,
  0x35, 0xc5, 0xa6, 0x3d, 0x75, 0x88, 0x1d, 0xbd, 0xdd, 0xde, 0x6f, 0xbe,
  0x9c, 0xd7, 0xcb, 0x3d, 0xc6, 0x76, 0x72, 0xbe, 0x98, 0x93, 0xa3, 0xbd,
  0x86, 0x5c, 0x2e, 0x3d, 0x88, 0x32, 0x0d, 0xbe, 0x85, 0xc2, 0xf2, 0x3c,
  0x0c, 0xb7, 0x41, 0xbe, 0x36, 0x99, 0x0e, 0x3e, 0x48, 0x61, 0x05, 0x3f,
  0x55, 0x0c, 0x62, 0x3e, 0x01, 0xce, 0xd2, 0xbc, 0xf4, 0xfa, 0xf9, 0xbe,
  0x29, 0x28, 0x1e, 0xbe, 0x81, 0xaa, 0x2e, 0xbc, 0xdc, 0x08, 0x1d, 0xbe,
  0xa7, 0xd9, 0x36, 0x3c, 0x92, 0x76, 0xbd, 0x3b, 0x32, 0xbc, 0xab, 0x3d,
  0xe2, 0xe4, 0x32, 0xbe, 0x1f, 0x35, 0xd2, 0xbd, 0x32, 0x26, 0x17, 0x3e,
  0x37, 0x5c, 0xbc, 0xbe, 0xd1, 0x54, 0x31, 0x3e, 0x31, 0x33, 0x2e, 0xbe,
  0x12, 0x5f, 0xad, 0x3d, 0x5a, 0xfb, 0x1f, 0x3d, 0x0a, 0xb1, 0xc4, 0xbd,
  0x29, 0x44, 0x2c, 0x3d, 0x54, 0xf1, 0xfe, 0x3a, 0xc6, 0x7d, 0x8c, 0xbd,
  0x5e, 0xb0, 0x12, 0x3d, 0xfd, 0x7d, 0xe9, 0xbd, 0xb8, 0x01, 0xd1, 0x3e,
  0x06, 0x2f, 0x24, 0x3e, 0x37, 0x53, 0x01, 0xbd, 0xd5, 0xef, 0x9c, 0x3d,
  0x0f, 0x74, 0x83, 0x3d, 0x1f, 0xe8, 0xf0, 0xbe, 0x99, 0x37, 0xe5, 0xbe,
  0x33, 0x9c, 0x93, 0xbe, 0xdc, 0x24, 0x83, 0x3e, 0x59, 0x10, 0x3d, 0xbd,
  0xcb, 0xb2, 0x95, 0x3c, 0xb1, 0xbf, 0x57, 0x3e, 0x19, 0x6e, 0x13, 0xbf,
  0xb3, 0xd0, 0x13, 0xbe, 0xe7, 0x34, 0xff, 0x3c, 0x18, 0x73, 0xe3, 0x3e,
  0x99, 0xfe, 0x5f, 0xbe, 0x58, 0x99, 0x52, 0x3e, 0x87, 0xd2, 0xa4, 0x3e,
  0xe7, 0xe0, 0x02, 0x3e, 0xb5, 0xd4, 0xe8, 0xbd, 0x22, 0x30, 0xa0, 0xbd,
  0xf0, 0xa8, 0xf9, 0x3d, 0x1b, 0x50, 0x62, 0xbe, 0xba, 0xdf, 0xff, 0xff,
  0x10, 0x00, 0x00, 0x00, 0x09, 0x00, 0x00, 0x00, 0x1c, 0x00, 0x00, 0x00,
  0x38, 0x00, 0x00, 0x00, 0x04, 0x00, 0x00, 0x00, 0x08, 0x00, 0x00, 0x00,
  0x04, 0x00, 0x00, 0x00, 0x03, 0x00, 0x00, 0x00, 0x01, 0x00, 0x00, 0x00,
  0x18, 0x00, 0x00, 0x00, 0x73, 0x65, 0x71, 0x75, 0x65, 0x6e, 0x74, 0x69,
  0x61, 0x6c, 0x2f, 0x63, 0x6f, 0x6e, 0x76, 0x32, 0x64, 0x2f, 0x43, 0x6f,
  0x6e, 0x76, 0x32, 0x44, 0x00, 0x00, 0x00, 0x00, 0x30, 0xdf, 0xff, 0xff,
  0x3a, 0xe0, 0xff, 0xff, 0x04, 0x00, 0x00, 0x00, 0x00, 0x01, 0x00, 0x00,
  0xd3, 0x7f, 0x3e, 0x3e, 0xc8, 0x19, 0x27, 0x3e, 0x27, 0x63, 0x91, 0x3e,
  0xf6, 0x04, 0xac, 0x3e, 0x0a, 0xcd, 0x80, 0x3e, 0xb7, 0x1c, 0x4b, 0x3e,
  0x2c, 0xb9, 0xae, 0x3e, 0x7d, 0x30, 0x8d, 0x3e, 0x1a, 0x2f, 0x1e, 0x3e,
  0x6d, 0x42, 0xc4, 0x3e, 0x70, 0xfd, 0x37, 0xbd, 0xed, 0xd9, 0xa3, 0xbd,
  0x41, 0x2c, 0x98, 0x3e, 0x4f, 0x29, 0x80, 0xbc, 0x47, 0x5f, 0x92, 0x3e,
  0xa9, 0xb6, 0xe0, 0x3e, 0x2c, 0x70, 0x28, 0x3e, 0xf2, 0x64, 0x65, 0x3e,
  0xf2, 0xd8, 0x77, 0x3e, 0x8a, 0x00, 0xaf, 0x3e, 0x0e, 0x10, 0x56, 0xba,
  0xe3, 0x90, 0x56, 0xbe, 0x3e, 0xbd, 0xba, 0x3e, 0xdc, 0xda, 0x2b, 0x3e,
  0x9c, 0x6b, 0x06, 0x3e, 0x51, 0x23, 0xce, 0x3e, 0xa9, 0x43, 0xdc, 0xbd,
  0x43, 0xf0, 0x3a, 0xbe, 0xb3, 0x9c, 0xa9, 0x3e, 0x36, 0x04, 0x49, 0xbe,
  0x8e, 0x9a, 0x0d, 0xbd, 0x3e, 0x82, 0xd0, 0x3e, 0xc1, 0x85, 0x82, 0x3e,
  0x5c, 0x58, 0x44, 0xbf, 0x23, 0x0b, 0x05, 0x3e, 0xe8, 0x36, 0x9c, 0x3e,
  0x35, 0x2a, 0xd5, 0xbe, 0x7f, 0xf8, 0xa7, 0xbe, 0x37, 0x5a, 0xb1, 0x3e,
  0x9e, 0xf9, 0x9d, 0xbf, 0xf0, 0x42, 0x56, 0x3e, 0x1c, 0xaf, 0xa7, 0x3d,
  0x3b, 0x56, 0x75, 0xbe, 0x1c, 0xe5, 0xde, 0xbe, 0x0b, 0xa0, 0x05, 0xbe,
  0x60, 0x36, 0x91, 0xbe, 0xdb, 0x45, 0xf1, 0x3e, 0xe2, 0x8f, 0xb6, 0x3e,
  0x07, 0x0d, 0x4a, 0x3e, 0x68, 0x72, 0x1c, 0x3e, 0x89, 0x9f, 0x7a, 0x3e,
  0xc8, 0x88, 0xc5, 0x3e, 0x2b, 0x2b, 0x8e, 0xbe, 0x53, 0xaa, 0x80, 0xbd,
  0x61, 0xb1, 0x84, 0x3e, 0x05, 0xec, 0xba, 0xbf, 0x30, 0x78, 0xd1, 0x3d,
  0x6b, 0xf9, 0x9a, 0x3e, 0x77, 0xbc, 0xd6, 0xbd, 0x55, 0x38, 0x3b, 0xbf,
  0xbb, 0x47, 0x98, 0x3e, 0x4a, 0x04, 0xb3, 0x3e, 0xbe, 0x4c, 0xa9, 0x3e,
  0xa8, 0xab, 0xc3, 0x3e, 0x12, 0xe1, 0xff, 0xff, 0x10, 0x00, 0x00, 0x00,
  0x08, 0x00, 0x00, 0x00, 0x14, 0x00, 0x00, 0x00, 0x30, 0x00, 0x00, 0x00,
  0x02, 0x00, 0x00, 0x00, 0x04, 0x00, 0x00, 0x00, 0x10, 0x00, 0x00, 0x00,
  0x19, 0x00, 0x00, 0x00, 0x73, 0x65, 0x71, 0x75, 0x65, 0x6e, 0x74, 0x69,
  0x61, 0x6c, 0x2f, 0x64, 0x65, 0x6e, 0x73, 0x65, 0x5f, 0x31, 0x2f, 0x4d,
  0x61, 0x74, 0x4d, 0x75, 0x6c, 0x00, 0x00, 0x00, 0x80, 0xe0, 0xff, 0xff,
  0x8a, 0xe1, 0xff, 0xff, 0x04, 0x00, 0x00, 0x00, 0x00, 0x1c, 0x00, 0x00,
  0x93, 0x0c, 0x10, 0xbf, 0xee, 0x3b, 0x17, 0xbe, 0x0e, 0x87, 0x46, 0x3d,
  0x42, 0xf8, 0xf7, 0x3d, 0x8c, 0x07, 0x92, 0x3e, 0x39, 0xea, 0x04, 0xbf,
  0x7a, 0xbd, 0x99, 0x3d, 0x26, 0xea, 0x54, 0xbf, 0x27, 0xdb, 0xe6, 0x3d,
  0xc1, 0x1b, 0x95, 0x3d, 0xd6, 0x16, 0xc2, 0x3d, 0x6d, 0xe6, 0xb2, 0x3d,
  0x15, 0x4c, 0x87, 0x3d, 0xd2, 0x3b, 0xd3, 0x3d, 0x31, 0x07, 0x23, 0xbf,
  0xb6, 0x63, 0xae, 0xbd, 0xe3, 0x66, 0x0d, 0xbf, 0x54, 0xee, 0x78, 0x3e,
  0x4a, 0x24, 0x6a, 0x3e, 0x15, 0x03, 0xb3, 0xbd, 0x36, 0x94, 0xbc, 0x3e,
  0x54, 0x56, 0x0b, 0xbe, 0x0c, 0xfe, 0x9b, 0x3e, 0x2c, 0xb5, 0xec, 0x3e,
  0xc4, 0xcc, 0xda, 0xbc, 0x54, 0x15, 0x95, 0x3d, 0x96, 0x34, 0xfd, 0xbe,
  0x61, 0x14, 0x9f, 0x3d, 0x8b, 0xfb, 0x1f, 0xbd, 0x4c, 0xa3, 0x12, 0xbe,
  0xfc, 0x40, 0x6f, 0xbc, 0x48, 0xfc, 0xe3, 0xbe, 0x84, 0x27, 0xa0, 0xbe,
  0x12, 0x60, 0xf8, 0x3e, 0x06, 0xc8, 0xb9, 0x3d, 0x7d, 0x05, 0xcf, 0xbd,
  0xcd, 0x1a, 0x20, 0x3f, 0x2a, 0xc3, 0x71, 0x3e, 0x34, 0xb5, 0xdd, 0x3e,
  0x3d, 0xdc, 0xe8, 0x3e, 0x96, 0xdd, 0x51, 0x3d, 0x90, 0xc3, 0xab, 0xbb,
  0x58, 0x09, 0xdc, 0xbe, 0xeb, 0x68, 0x78, 0x3a, 0x31, 0x49, 0x09, 0x3d,
  0xd6, 0xc6, 0x57, 0x3d, 0x21, 0x56, 0x9b, 0x3e, 0xc1, 0xc6, 0xc5, 0x3c,
  0x96, 0x0c, 0x0d, 0xbf, 0x2b, 0x9d, 0xac, 0xbe, 0xea, 0x19, 0xdb, 0xbd,
  0xc3, 0x37, 0xf7, 0xbd, 0xd9, 0x62, 0xa4, 0x3e, 0x84, 0x0b, 0x6f, 0x3d,
  0x95, 0xe1, 0x4c, 0xbc, 0xa1, 0x92, 0x4f, 0xbe, 0xc8, 0x86, 0x9b, 0xbd,
  0xd7, 0xa1, 0x29, 0x3c, 0x99, 0x08, 0xf1, 0xbe, 0x11, 0xa7, 0x73, 0xbd,
  0x12, 0xe8, 0x0d, 0x3d, 0x59, 0x38, 0xb6, 0x3d, 0x10, 0xe2, 0x8e, 0xbd,
  0xd4, 0x7e, 0x9d, 0xbe, 0xe5, 0x74, 0xe6, 0xbe, 0x3a, 0x57, 0x6c, 0xbe,
  0xba, 0x44, 0xea, 0x3c, 0x39, 0x90, 0xba, 0xbd, 0xa7, 0x98, 0x3a, 0x3e,
  0x5f, 0x78, 0xbb, 0xbd, 0xe1, 0x68, 0x44, 0x3e, 0xe0, 0x14, 0x3b, 0x3d,
  0xb7, 0x7d, 0x08, 0x3e, 0xa4, 0x5e, 0xa1, 0x3b, 0xa1, 0xf6, 0xb2, 0xbe,
  0x57, 0x6f, 0x08, 0xbe, 0x62, 0x20, 0x06, 0xbc, 0xa0, 0x45, 0x9d, 0x3d,
  0x20, 0xc0, 0x6b, 0x3d, 0x98, 0x7e, 0xb3, 0xbd, 0x53, 0xbf, 0x44, 0xbe,
  0xaa, 0x1f, 0x5a, 0xbe, 0xc0, 0x48, 0xf3, 0x3d, 0x13, 0x56, 0x72, 0x3b,
  0xb9, 0x35, 0xb9, 0x3e, 0x42, 0x70, 0x4f, 0xbe, 0x9f, 0x4c, 0x55, 0x3e,
  0x3e, 0x60, 0x88, 0x3d, 0xfe, 0x56, 0x56, 0x3d, 0x17, 0xc6, 0xe9, 0x3d,
  0x62, 0xf6, 0xe4, 0xbe, 0x0f, 0xe3, 0xee, 0xbb, 0xf1, 0x9b, 0x95, 0xbd,
  0x34, 0x97, 0xa3, 0x3d, 0x23, 0xd3, 0x36, 0xbc, 0x17, 0x1b, 0x5c, 0xbc,
  0x2b, 0x29, 0x09, 0xbe, 0xb6, 0xc1, 0x2a, 0xbe, 0xe3, 0x4c, 0x1f, 0x3e,
  0xf3, 0x17, 0x85, 0x3d, 0x44, 0xa8, 0x73, 0x3e, 0x03, 0x11, 0x07, 0xbe,
  0x01, 0x83, 0x9b, 0xbc, 0x21, 0x49, 0x81, 0xbd, 0xab, 0x16, 0x85, 0xbc,
  0x10, 0x28, 0xab, 0xbc, 0xb7, 0x30, 0x86, 0xbe, 0xfc, 0x60, 0x7f, 0x3d,
  0xd3, 0x72, 0xb9, 0xbe, 0xfd, 0x80, 0x82, 0x3d, 0xcc, 0x1b, 0x58, 0xbd,
  0x02, 0x8d, 0xab, 0x3c, 0x73, 0xff, 0xad, 0x3c, 0xe8, 0xa9, 0x1c, 0xbe,
  0x91, 0x99, 0xb6, 0x3e, 0x18, 0x67, 0xc3, 0xbd, 0x5b, 0x37, 0xcb, 0x3e,
  0x7d, 0xbd, 0x9f, 0xbc, 0xb0, 0xe9, 0x02, 0x3c, 0x4f, 0x07, 0x12, 0xbe,
  0xba, 0x4f, 0xfa, 0xbd, 0x18, 0x74, 0x13, 0xbf, 0xf4, 0x65, 0xec, 0xbe,
  0xac, 0x46, 0x29, 0xbf, 0xb7, 0x38, 0x18, 0xbf, 0x66, 0x15, 0x80, 0xbe,
  0xd2, 0x04, 0x04, 0xbb, 0xaa, 0x39, 0x35, 0x3c, 0x73, 0xaa, 0xfd, 0xbd,
  0x4f, 0x8a, 0xb7, 0x3e, 0x46, 0xa6, 0xb0, 0xbe, 0xce, 0x43, 0x88, 0xbd,
  0x6e, 0x6d, 0x22, 0x3d, 0xe7, 0x4d, 0x83, 0xbc, 0xb3, 0xac, 0x1b, 0xbe,
  0x14, 0x2e, 0x01, 0x3c, 0x9a, 0x48, 0x67, 0xbe, 0xb9, 0xaa, 0x05, 0xbf,
  0x36, 0x71, 0x50, 0x3b, 0xf8, 0x94, 0xdf, 0xbd, 0x8d, 0xf7, 0x92, 0xbe,
  0x59, 0x8e, 0xf4, 0xbd, 0x77, 0x69, 0x81, 0xbd, 0xd6, 0xf9, 0x4b, 0xbe,
  0x7b, 0x24, 0x90, 0xbd, 0x8b, 0xda, 0xab, 0x3e, 0x25, 0xcf, 0x32, 0xbd,
  0xe5, 0xfd, 0xed, 0xbd, 0xdc, 0x69, 0xc6, 0xbd, 0xbc, 0x79, 0x5f, 0x3e,
  0xd6, 0xcb, 0x27, 0xbe, 0xa4, 0x41, 0x16, 0xbe, 0x08, 0x22, 0x05, 0xbf,
  0x28, 0x9a, 0xfe, 0xbe, 0xb8, 0xeb, 0x47, 0xbe, 0xa1, 0x9f, 0x2c, 0xbe,
  0x52, 0x9f, 0xd9, 0xbe, 0x99, 0x01, 0xce, 0xbe, 0xcc, 0xd7, 0x12, 0xbe,
  0x7e, 0xee, 0x9d, 0xbd, 0x9b, 0x0e, 0x8e, 0xbe, 0x8a, 0x68, 0x26, 0x3e,
  0x9c, 0x13, 0x24, 0xbe, 0xc5, 0xe9, 0x92, 0xbe, 0x1f, 0xb8, 0xc8, 0x3d,
  0x21, 0xd7, 0x7f, 0x3d, 0x07, 0xcc, 0x8a, 0xbe, 0x0e, 0x86, 0x33, 0xbe,
  0xe7, 0x12, 0x66, 0xbe, 0xc5, 0x25, 0x5f, 0xbf, 0xce, 0xbe, 0xb9, 0xbd,
  0xbd, 0x05, 0x9e, 0xbe, 0x0b, 0x31, 0x23, 0xbf, 0xcd, 0xac, 0x25, 0xbf,
  0x6c, 0x74, 0x8c, 0xbd, 0x6e, 0xee, 0x9e, 0xbe, 0x62, 0x94, 0xb7, 0xbd,
  0x7d, 0x0a, 0xa3, 0x3e, 0x65, 0xf9, 0x92, 0xbd, 0xf8, 0x94, 0x72, 0x3d,
  0x14, 0x80, 0x30, 0xbe, 0x4e, 0x40, 0x01, 0x3e, 0x93, 0xe5, 0x8f, 0xbe,
  0xd7, 0x90, 0xac, 0x3e, 0xe5, 0x8a, 0xff, 0xbe, 0x76, 0x38, 0x7c, 0xbc,
  0x62, 0x62, 0x91, 0xbd, 0x43, 0x1b, 0x27, 0x3c, 0x77, 0x2f, 0xf4, 0xbe,
  0x9a, 0x75, 0x7a, 0x3d, 0x64, 0x81, 0xf1, 0xbd, 0xe6, 0x71, 0x8f, 0x3d,
  0x44, 0x70, 0xfd, 0xbd, 0x91, 0x63, 0x32, 0x3e, 0xd1, 0xdd, 0xc6, 0xbe,
  0x5c, 0x00, 0x2e, 0x3d, 0x59, 0xbb, 0x35, 0xbe, 0x27, 0x91, 0x2d, 0x3e,
  0x2c, 0xbb, 0xa7, 0xbe, 0x6c, 0x23, 0x11, 0x3e, 0x77, 0x10, 0x24, 0xbe,
  0x2c, 0x2e, 0xcb, 0xbe, 0xa5, 0xef, 0xed, 0xbc, 0xa2, 0x20, 0x5f, 0xbd,
  0x80, 0x25, 0x1c, 0xbe, 0x6c, 0x92, 0x99, 0x3d, 0xf2, 0x71, 0x72, 0x3d,
  0x34, 0xdb, 0x19, 0x3e, 0x72, 0x5d, 0x09, 0x3d, 0x42, 0x7b, 0xe4, 0x3d,
  0x81, 0xfe, 0xdc, 0x3d, 0x5e, 0xdf, 0xe6, 0x3c, 0x41, 0x98, 0x5a, 0xbd,
  0xb3, 0x38, 0x1d, 0x3e, 0x74, 0x3e, 0xd3, 0x3a, 0x39, 0x54, 0xf4, 0x3e,
  0xa6, 0xd5, 0xb2, 0xbd, 0xd1, 0xf7, 0x4c, 0xbd, 0x08, 0x8e, 0xff, 0xbd,
  0x2a, 0x40, 0x5f, 0x3c, 0xbe, 0x84, 0xe8, 0xbd, 0xb2, 0x93, 0x93, 0x3d,
  0x45, 0x8f, 0xd3, 0x3d, 0xd4, 0xc5, 0x97, 0x3d, 0xdf, 0x4a, 0xcc, 0xbb,
  0x40, 0xbd, 0xb5, 0xbe, 0x31, 0x5b, 0x98, 0x3d, 0x98, 0x31, 0x04, 0xbe,
  0xb7, 0xe2, 0x9f, 0x3d, 0xa8, 0x7d, 0x30, 0xbf, 0x67, 0xa0, 0x50, 0x3e,
  0xe6, 0xf1, 0x9d, 0xbe, 0xaa, 0x19, 0x0b, 0x3e, 0x40, 0x8c, 0xa1, 0xbe,
  0xad, 0xed, 0x03, 0xbe, 0xc0, 0xe4, 0xf0, 0x3d, 0x57, 0xf2, 0xa6, 0xbd,
  0x01, 0x22, 0x99, 0x3b, 0xc3, 0xdb, 0x6b, 0xbe, 0x1c, 0xa4, 0xd4, 0xbd,
  0x03, 0x7a, 0xd8, 0xbc, 0x7e, 0x85, 0x92, 0xbd, 0x09, 0x1d, 0x92, 0xbe,
  0x62, 0xcf, 0x6e, 0xbe, 0x8c, 0x9c, 0x1e, 0x3c, 0x1a, 0xf8, 0x74, 0x3d,
  0x98, 0x64, 0x86, 0x3e, 0x6f, 0x34, 0xb1, 0xbe, 0x09, 0xb3, 0x29, 0x3e,
  0xbe, 0xe8, 0x75, 0xbe, 0xff, 0xa7, 0x27, 0xbf, 0x3c, 0xa7, 0x0e, 0xbf,
  0x9c, 0xe7, 0xce, 0xbd, 0xd1, 0x8f, 0xca, 0x3e, 0x1c, 0xdf, 0x20, 0xbe,
  0xf0, 0x80, 0x20, 0x3e, 0x29, 0x7a, 0xf8, 0x3c, 0xdc, 0xff, 0x4c, 0xbe,
  0xae, 0xc4, 0xd1, 0xbd, 0x77, 0x3c, 0xaa, 0xbd, 0xfd, 0x7d, 0xe9, 0xbe,
  0x53, 0x92, 0x1a, 0x3c, 0x93, 0x27, 0x08, 0x3e, 0x5a, 0x1e, 0x14, 0xbf,
  0xcf, 0x11, 0xe2, 0x3d, 0xa6, 0x51, 0x9d, 0xbe, 0x6d, 0xd1, 0x3c, 0xbf,
  0x56, 0xdc, 0xe4, 0x3d, 0x82, 0x8c, 0xad, 0xbd, 0xfd, 0xe3, 0xf6, 0x3e,
  0x9f, 0xed, 0x00, 0xbe, 0x2f, 0x16, 0x48, 0x3e, 0x5e, 0x63, 0x27, 0x3d,
  0xb4, 0xc6, 0x67, 0xbe, 0xc3, 0xad, 0xe2, 0x3c, 0xb8, 0xca, 0x9f, 0x3c,
  0x76, 0xbf, 0x9b, 0x3d, 0xae, 0x1d, 0x28, 0xbc, 0xb4, 0x09, 0x9d, 0x3e,
  0x87, 0x4b, 0x4d, 0xbe, 0x01, 0xa6, 0x69, 0x3e, 0x4f, 0xd9, 0xbd, 0xbd,
  0x38, 0xf6, 0xf5, 0xbe, 0x96, 0x60, 0x59, 0x3e, 0x3d, 0xab, 0xa2, 0xbd,
  0xfb, 0xed, 0xbb, 0x3e, 0xc7, 0xda, 0x56, 0xbe, 0xa1, 0xa8, 0x89, 0x3e,
  0x48, 0x8e, 0x55, 0x3c, 0xcb, 0x8a, 0xfb, 0xbd, 0x93, 0x11, 0x3d, 0xbe,
  0xf6, 0xd4, 0xb9, 0xbe, 0xe6, 0x82, 0x47, 0x3d, 0x5d, 0xa6, 0x34, 0xbe,
  0xfb, 0xb2, 0xc2, 0x3e, 0x8a, 0xb8, 0x79, 0xbe, 0x94, 0x7d, 0x72, 0x3e,
  0x8e, 0x7e, 0x99, 0xbd, 0x14, 0xe0, 0xac, 0xbe, 0x6d, 0xb5, 0x9a, 0x3d,
  0x50, 0x6f, 0xc0, 0xbc, 0xf0, 0x87, 0xdf, 0x3e, 0x21, 0xf3, 0x11, 0xbe,
  0xe0, 0x09, 0xbe, 0xbc, 0x00, 0x6e, 0xb9, 0xbc, 0x02, 0x30, 0x7f, 0xbe,
  0x2e, 0x7f, 0x9b, 0xbe, 0xb0, 0x70, 0xc5, 0xbe, 0xe0, 0x3d, 0xbb, 0xbe,
  0xaf, 0xee, 0x56, 0xbe, 0x8b, 0x9b, 0x49, 0x3e, 0xd7, 0x75, 0x8a, 0xbe,
  0xaf, 0xb0, 0x8f, 0x3e, 0xc1, 0xb6, 0xbe, 0xbd, 0xae, 0x26, 0x37, 0xbf,
  0x36, 0x24, 0xee, 0xb9, 0x39, 0xb3, 0x00, 0x3d, 0x75, 0x50, 0x35, 0x3e,
  0x82, 0x76, 0xd7, 0xbe, 0x8b, 0x85, 0x16, 0x3c, 0x0b, 0xdf, 0x87, 0xbc,
  0x1b, 0x29, 0xee, 0xbd, 0xac, 0x86, 0x62, 0xbc, 0x7d, 0x0a, 0x84, 0xbe,
  0xdc, 0x71, 0xe2, 0x3d, 0xde, 0x76, 0xd7, 0x3b, 0x58, 0x77, 0xaa, 0x3c,
  0x45, 0x2f, 0x1b, 0xbe, 0x01, 0x99, 0x4c, 0x3d, 0xe7, 0x2b, 0xf3, 0xbb,
  0xb6, 0x93, 0xa6, 0xbe, 0x9f, 0xd3, 0x47, 0x3d, 0xfd, 0x26, 0x82, 0xbd,
  0x8a, 0xfb, 0xa5, 0x3d, 0xea, 0xfc, 0x23, 0xbe, 0x40, 0x16, 0xf6, 0x3c,
  0x4c, 0xee, 0x1b, 0x3d, 0x23, 0x97, 0xe9, 0xbd, 0x3e, 0xe7, 0xb8, 0xbe,
  0x52, 0xae, 0x1b, 0xbd, 0x70, 0x86, 0x38, 0xbf, 0xfe, 0x7d, 0xfa, 0x3c,
  0x8e, 0xb8, 0x4d, 0xbf, 0x4d, 0x40, 0xa5, 0x3e, 0x77, 0x83, 0x37, 0xbe,
  0x80, 0xcd, 0x95, 0xbe, 0x7f, 0x2e, 0x58, 0xbe, 0x85, 0x61, 0xcc, 0xbe,
  0x16, 0x50, 0xbb, 0xbd, 0x66, 0x79, 0x80, 0xbe, 0x9e, 0x0f, 0x82, 0x3d,
  0x6c, 0x55, 0x1b, 0xbe, 0x51, 0x72, 0xc1, 0xbb, 0x5c, 0x34, 0x25, 0x3e,
  0x2a, 0xd4, 0x42, 0x3d, 0x91, 0x94, 0x29, 0x3e, 0x68, 0xaa, 0x40, 0xbe,
  0xbf, 0xb7, 0x95, 0xbd, 0xa3, 0x81, 0x0d, 0xbf, 0x32, 0xd5, 0x44, 0xbe,
  0x81, 0xff, 0x04, 0xbe, 0x52, 0x4b, 0x5d, 0xbe, 0x53, 0xa1, 0x13, 0x3f,
  0x50, 0x1f, 0xc8, 0x3c, 0xaa, 0xe5, 0x28, 0x3e, 0xff, 0x1f, 0xdc, 0xbc,
  0xaa, 0xb9, 0x0a, 0x3e, 0xfa, 0x86, 0x31, 0x3c, 0xec, 0xe5, 0x03, 0x3d,
  0x8c, 0xe8, 0xd3, 0x3b, 0x9a, 0xf4, 0x72, 0x3e, 0x23, 0x04, 0x60, 0x3e,
  0xca, 0xea, 0x71, 0xbe, 0xd3, 0x83, 0x6a, 0xbd, 0x73, 0x12, 0x03, 0xbe,
  0x40, 0x1b, 0x3f, 0xbd, 0x40, 0xdf, 0xff, 0x3d, 0x9a, 0xd5, 0x23, 0xbe,
  0x8a, 0x61, 0xdf, 0x3e, 0xd0, 0x0f, 0x75, 0xbd, 0x5c, 0x5d, 0x5b, 0x3d,
  0x60, 0x8c, 0x37, 0xbd, 0x3a, 0x4f, 0xd3, 0x3d, 0xba, 0x92, 0xbc, 0xbc,
  0xea, 0xd8, 0x19, 0x3d, 0x39, 0xfc, 0x4d, 0xbd, 0x05, 0x79, 0xcc, 0x3e,
  0x6a, 0x88, 0x3e, 0x3e, 0x66, 0x0a, 0xdc, 0x3d, 0x3a, 0x84, 0x07, 0x3e,
  0xc5, 0x6c, 0x76, 0xbd, 0x90, 0x36, 0x38, 0x3d, 0x5c, 0xd8, 0x20, 0x3e,
  0x2a, 0x31, 0x12, 0xbe, 0xaa, 0xf4, 0x11, 0x3f, 0x9f, 0x0f, 0x0d, 0x3e,
  0x6d, 0x81, 0xef, 0x3d, 0x52, 0x45, 0xc8, 0xbc, 0xc4, 0xb7, 0x80, 0x3e,
  0xf3, 0x17, 0x4e, 0x3e, 0xb5, 0x51, 0x0a, 0x3d, 0xe2, 0x07, 0xa3, 0xbc,
  0x33, 0x52, 0x3f, 0x3e, 0xfa, 0xaf, 0x81, 0x3d, 0x71, 0x49, 0xa4, 0xbd,
  0xbd, 0x5d, 0xfc, 0x3c, 0xcf, 0x48, 0x1a, 0xbe, 0x10, 0x9a, 0xa5, 0xbe,
  0xda, 0xea, 0x80, 0xbc, 0x03, 0x56, 0xee, 0xbd, 0x55, 0xbb, 0xae, 0x3e,
  0x77, 0xc5, 0xec, 0xbd, 0x71, 0xbf, 0x91, 0x3d, 0x61, 0x4e, 0x9f, 0xbe,
  0xa1, 0xec, 0x21, 0x3d, 0x4b, 0x56, 0x13, 0xbd, 0x07, 0x2b, 0xe4, 0x3c,
  0x52, 0x2f, 0x04, 0x3c, 0xd6, 0xd0, 0x66, 0x3e, 0x2e, 0x49, 0x04, 0x3e,
  0xec, 0x68, 0xb9, 0x3d, 0x0c, 0x37, 0xaa, 0xbd, 0x25, 0xef, 0x90, 0xbe,
  0x22, 0xc5, 0x1e, 0xbe, 0x4f, 0xe4, 0x42, 0xbe, 0x31, 0x86, 0xc4, 0xbd,
  0xc6, 0x11, 0x10, 0x3f, 0x35, 0x19, 0x42, 0xbe, 0xa5, 0x80, 0x02, 0x3e,
  0x5a, 0x13, 0x20, 0xbf, 0xa8, 0x98, 0xe7, 0x3d, 0x73, 0x37, 0x87, 0xbe,
  0xce, 0xae, 0x18, 0x3d, 0x67, 0x29, 0x85, 0xbe, 0x4b, 0xe8, 0x4a, 0xbd,
  0x74, 0x3b, 0x7e, 0xbd, 0x5d, 0x8a, 0x36, 0xbe, 0xc4, 0xd2, 0x46, 0xbe,
  0x26, 0x76, 0x0e, 0x3d, 0x85, 0x75, 0x70, 0xbe, 0x40, 0x85, 0x68, 0x38,
  0x31, 0x47, 0x5c, 0x3e, 0x3b, 0x6b, 0xb1, 0x3e, 0xbf, 0x76, 0x86, 0xbd,
  0x18, 0x8b, 0x6a, 0x3e, 0x79, 0x21, 0x99, 0xbe, 0x3b, 0x72, 0xbb, 0xbc,
  0x4e, 0x4d, 0xdb, 0xbd, 0x84, 0x12, 0x81, 0xbe, 0xe5, 0x17, 0xbf, 0x3d,
  0x6a, 0x1f, 0xb5, 0xbc, 0x9d, 0xdf, 0x96, 0xbe, 0x2c, 0xc3, 0x5e, 0x3d,
  0xf1, 0x23, 0xb9, 0x3c, 0xfa, 0xaa, 0x82, 0xbd, 0xec, 0xcc, 0x57, 0xbe,
  0x34, 0x09, 0x83, 0x3c, 0x23, 0xc8, 0x14, 0xbe, 0xe5, 0x5d, 0x03, 0x3d,
  0x7f, 0x28, 0x42, 0xbe, 0x38, 0xf0, 0x33, 0xbe, 0x3f, 0x0b, 0x80, 0xbe,
  0x9f, 0x1f, 0xd4, 0x3c, 0x37, 0x6d, 0x7c, 0xbe, 0x1f, 0x9e, 0xa8, 0xb9,
  0x5c, 0x9f, 0x93, 0x3d, 0x98, 0x52, 0x26, 0xbe, 0xf9, 0x63, 0xd2, 0x3d,
  0xe0, 0x2b, 0x73, 0xbd, 0x1e, 0x68, 0xcc, 0xbc, 0x9b, 0x86, 0xd6, 0x3c,
  0x38, 0xec, 0xac, 0x3d, 0x10, 0x72, 0xf0, 0xbc, 0x0d, 0xd4, 0xcc, 0xbd,
  0x24, 0x44, 0xbe, 0xbd, 0x30, 0x90, 0x09, 0x3e, 0xc8, 0x94, 0x77, 0xbe,
  0xd7, 0xf0, 0x68, 0xbe, 0x15, 0xc8, 0x23, 0xbd, 0x73, 0xed, 0x9c, 0xbd,
  0x18, 0x40, 0x57, 0xbe, 0x4d, 0x39, 0xee, 0x3c, 0xc3, 0xbb, 0xca, 0x3c,
  0xcb, 0x56, 0xf0, 0xbd, 0x79, 0x86, 0xfc, 0xbd, 0x40, 0x22, 0x92, 0x3c,
  0x26, 0xf0, 0xe8, 0xbd, 0x1e, 0x40, 0x9a, 0x3c, 0x8e, 0xa1, 0xab, 0x3d,
  0x0f, 0x7c, 0x33, 0xbe, 0xb9, 0x5d, 0x00, 0x3e, 0x01, 0xfd, 0x2e, 0xbd,
  0x05, 0xd6, 0x35, 0x3d, 0xef, 0x2a, 0xb8, 0xbd, 0x14, 0xcf, 0x31, 0x3d,
  0x8a, 0xc4, 0x06, 0xbe, 0xd8, 0xe2, 0xcd, 0xbd, 0x92, 0xe8, 0x1c, 0xbd,
  0xd6, 0xfb, 0xcb, 0xbd, 0x7a, 0x7b, 0x42, 0x3d, 0xe0, 0x01, 0x29, 0xbe,
  0x67, 0x18, 0x26, 0xbe, 0xa6, 0xf8, 0xa9, 0xbc, 0xcb, 0x0a, 0xa3, 0x3b,
  0x15, 0x13, 0x42, 0x3d, 0x48, 0xe7, 0x91, 0xbe, 0x95, 0x67, 0x50, 0xbe,
  0x30, 0xa3, 0x4e, 0xbd, 0x88, 0x9c, 0xca, 0x3c, 0xff, 0x7f, 0x08, 0xbe,
  0x41, 0xec, 0x8e, 0xbd, 0xdb, 0xb4, 0x05, 0x3e, 0xce, 0xac, 0xc6, 0xbd,
  0x02, 0x98, 0x07, 0x3d, 0x97, 0x5c, 0xcf, 0xbd, 0x69, 0x2b, 0x06, 0xbe,
  0x84, 0xaa, 0xc4, 0x3d, 0x0a, 0x4c, 0xd8, 0x3d, 0x47, 0x87, 0xcc, 0x3c,
  0xb2, 0x2c, 0x2a, 0xbe, 0x0d, 0xec, 0x0d, 0xbd, 0x67, 0xd2, 0x0a, 0xbe,
  0x8a, 0x5c, 0x5f, 0xbe, 0x18, 0x53, 0xfe, 0xbd, 0xc0, 0x58, 0x16, 0xbd,
  0x1a, 0xa4, 0x7b, 0xbe, 0x4f, 0x45, 0xc8, 0xbd, 0xa1, 0xf5, 0x23, 0xbe,
  0x71, 0x17, 0xed, 0xbc, 0x1e, 0x97, 0x21, 0x3e, 0xf3, 0xd2, 0x80, 0xbe,
  0x9b, 0x8a, 0x6b, 0xbe, 0x5a, 0x2b, 0x91, 0x3d, 0x2f, 0x3a, 0x3b, 0xbd,
  0xb2, 0x4d, 0x91, 0x3c, 0x42, 0xd2, 0xc9, 0x3c, 0x65, 0xd7, 0x1b, 0x3d,
  0x3d, 0xb1, 0x43, 0x3d, 0x7a, 0xa7, 0x93, 0x3d, 0x66, 0x46, 0xfb, 0xbd,
  0xf7, 0x6d, 0x74, 0xbe, 0x29, 0x0c, 0x5e, 0xbe, 0x93, 0x2c, 0x3b, 0xbe,
  0x25, 0x8f, 0x05, 0xbe, 0x5c, 0x12, 0x25, 0xbe, 0xec, 0xad, 0x1d, 0x3d,
  0xe7, 0x2f, 0x35, 0xbd, 0x4a, 0x78, 0x08, 0xbe, 0x77, 0x78, 0x1f, 0xbd,
  0x59, 0x8c, 0x37, 0xbe, 0x5e, 0x38, 0x77, 0xbe, 0x11, 0xfb, 0x50, 0xbd,
  0x81, 0x8f, 0x38, 0xbe, 0x97, 0x97, 0x16, 0xbe, 0x3b, 0xbb, 0xe3, 0xbd,
  0x41, 0x5a, 0x5b, 0x3d, 0x41, 0x00, 0x47, 0x3d, 0xc9, 0x5b, 0xf3, 0xbd,
  0x74, 0x46, 0xef, 0xbd, 0xa5, 0x29, 0x9b, 0xbd, 0x82, 0xb5, 0x47, 0xbe,
  0xa0, 0x47, 0xd5, 0x3d, 0x72, 0xb0, 0x14, 0xbe, 0x02, 0x07, 0xa1, 0xbd,
  0x7d, 0x52, 0x55, 0xbe, 0xfb, 0xbb, 0x5f, 0xbe, 0x91, 0x7f, 0x56, 0xbd,
  0x2d, 0x0d, 0xd3, 0xbd, 0xf7, 0x82, 0xc3, 0xbd, 0x09, 0x8c, 0x8e, 0xbe,
  0x6d, 0x1e, 0x6e, 0x3d, 0xb8, 0x2c, 0x89, 0xbe, 0xc6, 0x93, 0x97, 0xbe,
  0x96, 0x11, 0xa1, 0x3d, 0xa4, 0x06, 0xd2, 0xbe, 0xfa, 0x89, 0xa0, 0xbd,
  0x14, 0xf3, 0x40, 0xbd, 0x65, 0xdc, 0x40, 0xbd, 0xbb, 0xa2, 0x52, 0xbd,
  0x4e, 0x6d, 0x82, 0xbe, 0xe0, 0x8f, 0x95, 0x3e, 0x6e, 0x9c, 0xcb, 0xbd,
  0x91, 0xb1, 0x3a, 0xbe, 0x16, 0xd5, 0x14, 0x3e, 0xd8, 0x11, 0x15, 0xbe,
  0x76, 0xed, 0x32, 0xbe, 0x19, 0xb3, 0x6a, 0x3e, 0x98, 0xd2, 0x98, 0xbe,
  0xbc, 0x9b, 0x02, 0xbe, 0x37, 0x69, 0x4f, 0x3f, 0x33, 0xaa, 0x51, 0xba,
  0xab, 0xb2, 0x16, 0xbd, 0x66, 0x18, 0xc7, 0x3c, 0x94, 0x97, 0x03, 0x3e,
  0x38, 0xc6, 0x07, 0x3d, 0xfd, 0x00, 0x53, 0xbe, 0xc1, 0x5f, 0x2f, 0xbe,
  0xb2, 0x8c, 0x75, 0xbe, 0x56, 0x8f, 0xd8, 0xbc, 0x2d, 0x22, 0x2c, 0xbe,
  0xf4, 0xcd, 0x88, 0xbd, 0x38, 0x07, 0x64, 0xbe, 0xdb, 0x82, 0xf4, 0x3e,
  0xbc, 0x77, 0x36, 0xbe, 0x0a, 0xb1, 0x4e, 0xbe, 0x58, 0x25, 0x10, 0x3f,
  0x5e, 0xca, 0x61, 0xbe, 0xf5, 0x47, 0x0d, 0x3e, 0x3c, 0xb0, 0x05, 0xbe,
  0xeb, 0xaf, 0x6e, 0x3e, 0xaf, 0xe0, 0xa6, 0xbd, 0x2a, 0x50, 0x97, 0x3c,
  0x6d, 0xb7, 0x3b, 0x3d, 0x22, 0x86, 0x2a, 0x3d, 0x5e, 0x12, 0x89, 0xbd,
  0x8d, 0x19, 0x22, 0xbc, 0x4c, 0x69, 0xdf, 0x3d, 0xeb, 0x21, 0xbd, 0x3d,
  0x49, 0x89, 0x2f, 0x3f, 0x19, 0xd0, 0x81, 0xbe, 0x7c, 0x1d, 0xcd, 0xbd,
  0xd3, 0xcd, 0x02, 0x3f, 0x4b, 0x30, 0x00, 0x3e, 0x8a, 0x72, 0xab, 0x3d,
  0x09, 0x65, 0x96, 0xbd, 0x9a, 0x84, 0xc0, 0x3d, 0xcf, 0x7c, 0x4f, 0xbe,
  0xbe, 0x4b, 0xe0, 0xbd, 0x56, 0xb3, 0x83, 0x3e, 0xc2, 0x0e, 0x93, 0xbd,
  0xd2, 0x11, 0x35, 0xbe, 0x26, 0xb0, 0x05, 0xbe, 0x81, 0xa5, 0x1e, 0xbd,
  0xca, 0x97, 0x40, 0x3d, 0x35, 0xf4, 0x45, 0x3e, 0x0a, 0x89, 0xfa, 0x3c,
  0x81, 0x7e, 0xb3, 0xbe, 0xf4, 0x65, 0x2c, 0x3c, 0x13, 0xdd, 0xd2, 0xbd,
  0x9b, 0xf8, 0x89, 0xbd, 0xc9, 0xef, 0x59, 0xbe, 0x2c, 0x61, 0xee, 0xbd,
  0x64, 0x55, 0x0e, 0xbe, 0x78, 0x26, 0xb5, 0xbd, 0xe6, 0x41, 0xaf, 0x3d,
  0xa3, 0x8f, 0x65, 0x3d, 0x06, 0x02, 0x20, 0xbe, 0xf8, 0x87, 0x81, 0xbe,
  0x45, 0x0d, 0xc2, 0xbb, 0x2a, 0xce, 0x0c, 0xbd, 0xdb, 0x0b, 0xab, 0x3e,
  0x97, 0xe9, 0x56, 0xbe, 0x5f, 0x8e, 0x20, 0xbc, 0x8d, 0x0c, 0xc2, 0x3e,
  0x9d, 0xcf, 0x67, 0xbe, 0x37, 0x60, 0x59, 0xbe, 0x71, 0x5c, 0xce, 0xbe,
  0xde, 0x05, 0x6a, 0xbe, 0x7e, 0x75, 0xc6, 0xbe, 0xc9, 0x8c, 0xf3, 0xbe,
  0x7e, 0xb7, 0x96, 0xbe, 0xd8, 0x54, 0x71, 0xbd, 0xcc, 0xc2, 0x98, 0xbe,
  0x6d, 0x89, 0x21, 0x3d, 0x42, 0x69, 0x8f, 0xbe, 0x98, 0xaf, 0xde, 0xbe,
  0x41, 0xe2, 0x9b, 0x3e, 0xa9, 0x5c, 0xab, 0xbc, 0xfa, 0x98, 0x98, 0xbe,
  0xbd, 0xcc, 0x3f, 0x3e, 0x97, 0x39, 0x17, 0xbe, 0xa1, 0x43, 0x11, 0xbd,
  0x10, 0x0b, 0x8f, 0xbd, 0x32, 0xa1, 0xa7, 0x3e, 0x55, 0xae, 0xaa, 0x3e,
  0xcb, 0x84, 0x0d, 0x3e, 0xd3, 0xb4, 0x58, 0x3f, 0xde, 0xcb, 0xd7, 0x3d,
  0x0f, 0xb6, 0x53, 0x3e, 0x6d, 0xbe, 0xda, 0xbc, 0x46, 0xfb, 0x25, 0x3e,
  0x9a, 0x7b, 0x1c, 0x3d, 0xb4, 0xda, 0x09, 0x3e, 0xff, 0x1d, 0xd6, 0x3d,
  0xcc, 0x89, 0x3e, 0x3d, 0x2a, 0x6a, 0xb3, 0x3d, 0xd3, 0xa6, 0x10, 0x3c,
  0x28, 0x53, 0x15, 0x3e, 0xca, 0xd5, 0x2b, 0x3d, 0x9e, 0xcc, 0xcf, 0x3d,
  0x8a, 0xda, 0x0f, 0x3e, 0x48, 0xf7, 0x9d, 0xbe, 0x4f, 0x56, 0x9b, 0x3d,
  0xf8, 0x32, 0xa0, 0xbe, 0xd9, 0x58, 0x76, 0x3e, 0x1c, 0x0f, 0x1d, 0xbe,
  0xfa, 0xa5, 0x40, 0xbd, 0x55, 0xdf, 0x07, 0xbd, 0x27, 0x35, 0x80, 0xbe,
  0x3c, 0x96, 0xb2, 0x3c, 0x6f, 0x44, 0xbc, 0x39, 0x41, 0x29, 0x3a, 0xbf,
  0xdc, 0x5e, 0xec, 0xbd, 0xc2, 0x30, 0xcd, 0xbe, 0xce, 0x54, 0xc1, 0xbd,
  0xd5, 0x87, 0x0d, 0xbe, 0x1b, 0xff, 0xd2, 0xbd, 0xa2, 0x1e, 0x37, 0xbe,
  0x58, 0x94, 0x03, 0x3f, 0xb4, 0x38, 0x34, 0xbe, 0x2b, 0x74, 0x82, 0x3e,
  0xda, 0xd1, 0xb6, 0x3d, 0xe0, 0x05, 0x9b, 0xbc, 0x35, 0x21, 0x49, 0x3c,
  0xa0, 0x52, 0xa4, 0xbd, 0x57, 0x4d, 0xa4, 0xbd, 0x5a, 0x74, 0x4f, 0x3d,
  0xe9, 0xf6, 0x29, 0xbf, 0x29, 0x99, 0xf0, 0xbd, 0x6a, 0x1e, 0xdb, 0xbe,
  0x72, 0x03, 0x29, 0xbe, 0x41, 0xea, 0x57, 0xbe, 0x11, 0xe3, 0xb2, 0xbc,
  0xbd, 0x24, 0x19, 0xbe, 0x62, 0xff, 0x48, 0x3d, 0xa8, 0xec, 0xb5, 0xbd,
  0x8f, 0xee, 0xa8, 0x3d, 0x79, 0x2e, 0x89, 0xbd, 0x5b, 0x04, 0xd7, 0xbd,
  0x7f, 0xfe, 0x22, 0xbd, 0xa8, 0xc5, 0xf9, 0xbd, 0xca, 0xa0, 0xb3, 0xbd,
  0xf2, 0xb9, 0xb2, 0x3c, 0xb9, 0xbf, 0xcd, 0xbe, 0xbc, 0xc3, 0x8d, 0xbd,
  0x19, 0xe3, 0x92, 0xbe, 0xfb, 0x77, 0xe6, 0xbd, 0x5f, 0xb7, 0x8a, 0xbe,
  0x99, 0xf9, 0xdc, 0xbc, 0x67, 0x9f, 0x36, 0xbd, 0x53, 0xda, 0x7a, 0x3e,
  0xb6, 0x4f, 0x89, 0xbe, 0x6d, 0xe5, 0x22, 0x3e, 0xa7, 0x49, 0x31, 0x3e,
  0x60, 0xa5, 0x1e, 0x3c, 0xef, 0xde, 0x5a, 0x3d, 0x30, 0x88, 0xc9, 0xbd,
  0xea, 0xf6, 0xa7, 0x3c, 0x95, 0x26, 0xd3, 0xbb, 0x0b, 0xed, 0x71, 0x3d,
  0x4d, 0x97, 0xff, 0xbd, 0xf2, 0x25, 0xc7, 0x3d, 0x6c, 0x69, 0xd8, 0xbd,
  0x9f, 0x43, 0xf9, 0x3e, 0x46, 0xea, 0x79, 0x3d, 0x1e, 0x07, 0x3c, 0xbc,
  0xf9, 0xc1, 0x97, 0x3e, 0xf9, 0x54, 0xf3, 0x3d, 0x1b, 0xae, 0x43, 0x3e,
  0x74, 0x4f, 0x8d, 0x3e, 0x73, 0xb7, 0xb8, 0x3a, 0xa3, 0xc2, 0xd0, 0x3d,
  0x5d, 0x7b, 0x38, 0xbd, 0x61, 0x1c, 0x66, 0xbc, 0x3c, 0x75, 0xeb, 0xbd,
  0x92, 0x21, 0x99, 0x3d, 0x1e, 0x7d, 0x16, 0x3d, 0x4c, 0x51, 0x1b, 0x3e,
  0x08, 0x54, 0x1d, 0xbe, 0x6c, 0xc5, 0xcf, 0x3c, 0x0e, 0xe7, 0xa0, 0x3d,
  0x58, 0x86, 0x4c, 0xbd, 0xaa, 0xc4, 0x3a, 0x3e, 0x3a, 0xc9, 0x4b, 0x3e,
  0x00, 0x5a, 0xc5, 0xbc, 0x73, 0xde, 0x9b, 0x3d, 0x87, 0x61, 0xc0, 0xbd,
  0x79, 0x62, 0x4d, 0xbd, 0x89, 0xf0, 0x7d, 0xbe, 0xd0, 0xdb, 0x94, 0xbd,
  0x59, 0x8e, 0x03, 0xbf, 0x2b, 0xdb, 0xfc, 0x3d, 0xf3, 0x63, 0xd0, 0xbb,
  0xa0, 0x08, 0x2c, 0xbe, 0x1e, 0x16, 0x74, 0xbe, 0x05, 0xc7, 0x60, 0xbe,
  0x10, 0xc0, 0x89, 0xbe, 0x28, 0x16, 0x28, 0xbe, 0x71, 0xdb, 0x07, 0x3e,
  0xbf, 0x30, 0x89, 0xbe, 0x0b, 0x6e, 0x3e, 0xbe, 0x29, 0x06, 0x13, 0xbe,
  0xf7, 0x76, 0x2e, 0xbe, 0x1f, 0x22, 0x95, 0xbe, 0x68, 0x47, 0x81, 0x3d,
  0x2b, 0xc2, 0xac, 0xbd, 0x7b, 0x5c, 0x8b, 0xbe, 0xdf, 0xe6, 0x4a, 0x3e,
  0x2c, 0x6b, 0x92, 0xbe, 0xab, 0x9b, 0xb7, 0xbd, 0x3e, 0xfe, 0xf4, 0xbe,
  0xab, 0x05, 0x9b, 0x3d, 0x07, 0xa0, 0x38, 0xbe, 0x4d, 0xec, 0xba, 0xbd,
  0xf5, 0x8a, 0xc5, 0x3e, 0x39, 0xe8, 0x43, 0xbe, 0x7a, 0xb2, 0x46, 0xbe,
  0xa4, 0x52, 0x48, 0xbc, 0x54, 0xf5, 0xd9, 0xbc, 0x5c, 0x4d, 0x10, 0xbe,
  0x95, 0x9c, 0xae, 0x3e, 0x7f, 0x45, 0xd6, 0xbc, 0xce, 0x2a, 0x35, 0xbe,
  0xc5, 0xd9, 0xc1, 0x3f, 0x81, 0x8c, 0x47, 0xbe, 0xdc, 0x9d, 0x9b, 0xbe,
  0xaa, 0x84, 0x55, 0xbe, 0xb5, 0xc1, 0x5f, 0xbe, 0x47, 0x10, 0x2e, 0xbe,
  0x3b, 0x57, 0x15, 0xbe, 0x55, 0xb7, 0x5d, 0x3e, 0xd4, 0x48, 0x46, 0xbe,
  0xd8, 0x4d, 0xa4, 0xbe, 0x86, 0x41, 0xe0, 0xbd, 0x4f, 0x90, 0x84, 0x3c,
  0x52, 0x22, 0xa5, 0xbe, 0xc2, 0xc3, 0xdc, 0x3e, 0xf6, 0xde, 0x20, 0xbe,
  0x86, 0x92, 0x35, 0xbe, 0xf3, 0x9e, 0x00, 0x3f, 0x1b, 0x1a, 0x10, 0xbe,
  0x5f, 0xf4, 0xba, 0xbc, 0xf2, 0x77, 0x75, 0xbe, 0xa4, 0xbc, 0xba, 0x3d,
  0x7a, 0x0e, 0x7a, 0xbd, 0x23, 0x51, 0x45, 0x3e, 0x4a, 0x99, 0x9b, 0x3e,
  0x77, 0x18, 0x12, 0xbe, 0xd7, 0x09, 0x5d, 0xbe, 0x8c, 0x2c, 0x18, 0xbe,
  0x1c, 0xc6, 0x74, 0xbe, 0xc1, 0xae, 0xcf, 0x3a, 0x1f, 0x37, 0xbb, 0x3e,
  0xd2, 0xe7, 0x32, 0x3d, 0xd8, 0x5b, 0x77, 0xbd, 0x2b, 0xed, 0xe5, 0x3e,
  0xb5, 0x83, 0x46, 0xbd, 0x81, 0x0b, 0xd8, 0xbd, 0xec, 0x52, 0x7a, 0xbe,
  0x5b, 0x61, 0x34, 0xbb, 0x09, 0x1d, 0x79, 0xbe, 0xbc, 0xb3, 0x2b, 0xbe,
  0x89, 0xb3, 0xca, 0x3d, 0x3f, 0xdd, 0xa1, 0xbe, 0x72, 0x73, 0x62, 0xbe,
  0xe1, 0x3e, 0x4c, 0x3d, 0xfb, 0x33, 0x81, 0x3c, 0xb4, 0x75, 0xbb, 0xbe,
  0x46, 0xde, 0x89, 0x3e, 0x5b, 0x72, 0x33, 0xbe, 0xc4, 0xa4, 0x9c, 0xbe,
  0x04, 0x3d, 0xaa, 0x3d, 0x63, 0xe3, 0x40, 0xbd, 0x0b, 0xe2, 0xf7, 0xbd,
  0x1e, 0x50, 0x18, 0xbe, 0xb8, 0x80, 0x66, 0x3d, 0x18, 0x35, 0x4e, 0x3d,
  0x86, 0xf1, 0xf4, 0xbc, 0x3f, 0x1a, 0x7e, 0x3e, 0x8d, 0x43, 0xca, 0x3b,
  0xd8, 0x80, 0x93, 0xbe, 0xa2, 0x03, 0xf7, 0xbd, 0xc4, 0x28, 0x89, 0xbc,
  0xda, 0xbc, 0x23, 0xbe, 0x63, 0x82, 0x8f, 0x3e, 0xda, 0xf3, 0x40, 0xbe,
  0x35, 0x91, 0x18, 0xbe, 0x51, 0xde, 0x05, 0x3e, 0xe3, 0xc0, 0x22, 0xbe,
  0x3a, 0x12, 0x32, 0xbe, 0xdf, 0xb7, 0xe1, 0xbe, 0xd4, 0xf5, 0xbd, 0xbc,
  0x98, 0x31, 0xa5, 0xbe, 0xf2, 0x7b, 0xc5, 0xbe, 0xa6, 0xc6, 0xa2, 0x3d,
  0xd4, 0x89, 0xdb, 0xbd, 0xcf, 0x5f, 0x65, 0xbe, 0x2e, 0xc7, 0xc4, 0x3c,
  0xc3, 0x11, 0x88, 0xbe, 0x1f, 0xab, 0xe1, 0xbe, 0x05, 0x9c, 0xc7, 0x3c,
  0x8b, 0x4f, 0xbc, 0xbe, 0x60, 0x73, 0x9d, 0xbe, 0xf9, 0xe2, 0xb4, 0x3e,
  0x43, 0xd4, 0x72, 0xbe, 0x62, 0x52, 0x08, 0xbe, 0x45, 0x45, 0xc5, 0xbe,
  0x32, 0xf2, 0x89, 0xbe, 0x03, 0x05, 0x82, 0x3e, 0x97, 0x04, 0x40, 0x3d,
  0x7f, 0x29, 0x85, 0x3e, 0x6c, 0x2e, 0x0c, 0xbf, 0xcb, 0xd6, 0x8a, 0x3e,
  0x56, 0x98, 0x55, 0xbf, 0x6d, 0xbe, 0x2b, 0x3e, 0xee, 0x38, 0x2f, 0x3e,
  0x71, 0x7d, 0xf0, 0x3d, 0xad, 0x44, 0xeb, 0x3d, 0xb8, 0xc3, 0x27, 0x3e,
  0xeb, 0x76, 0xc3, 0xbd, 0xa7, 0x8a, 0x07, 0xbf, 0xf7, 0xb0, 0x24, 0xbe,
  0xcc, 0xe2, 0xf7, 0xbd, 0x9a, 0x3c, 0x59, 0xbe, 0x55, 0x61, 0xc5, 0x3e,
  0x0f, 0x75, 0x71, 0x3b, 0xcd, 0xb6, 0xe9, 0x3e, 0xf0, 0xc6, 0x4d, 0xbe,
  0xb6, 0xdb, 0xc7, 0x3e, 0x40, 0x74, 0xc2, 0x3e, 0xb6, 0x0e, 0x84, 0xbd,
  0xe1, 0x16, 0xf4, 0x3d, 0xbb, 0x6c, 0x2d, 0xbe, 0x97, 0xcb, 0xf6, 0x3d,
  0x7c, 0xa4, 0xc5, 0xbd, 0xba, 0xb5, 0x7a, 0x3e, 0x6a, 0xf6, 0xd3, 0x3c,
  0x70, 0xe8, 0x3d, 0xbe, 0x34, 0x24, 0x4f, 0xbe, 0x56, 0xaa, 0x6d, 0x3e,
  0x9a, 0x61, 0x36, 0x3d, 0x81, 0x54, 0xee, 0xbd, 0x0d, 0x1f, 0x5b, 0x3f,
  0x25, 0x71, 0x5c, 0x3e, 0xd4, 0x19, 0x0e, 0x3f, 0x27, 0xa7, 0x9b, 0x3e,
  0xb3, 0xaf, 0xa8, 0xbc, 0xcd, 0x1a, 0x27, 0xbd, 0xc1, 0xf8, 0xb8, 0x3b,
  0xe9, 0x81, 0x55, 0xbe, 0xa5, 0xd4, 0x08, 0x3d, 0xe3, 0x23, 0x82, 0x3e,
  0x00, 0x25, 0x08, 0x3e, 0x02, 0x52, 0x9a, 0x3d, 0x5e, 0xf9, 0x83, 0xbe,
  0x9c, 0xc9, 0x09, 0xbe, 0x3e, 0x02, 0xb6, 0x3c, 0x38, 0x83, 0x15, 0xbe,
  0xeb, 0x4e, 0x12, 0x3c, 0x0e, 0xe5, 0x98, 0x3d, 0xcc, 0x76, 0xf3, 0x3d,
  0xac, 0x59, 0xa3, 0xbd, 0x45, 0xc4, 0x57, 0xbd, 0xb1, 0xc6, 0xbd, 0xbd,
  0x36, 0x17, 0x61, 0x3c, 0x81, 0x56, 0x0a, 0xbe, 0x53, 0xf0, 0x69, 0x3d,
  0x86, 0x88, 0xb1, 0x3d, 0xaa, 0x4d, 0xac, 0x3d, 0xae, 0x14, 0x31, 0xbe,
  0x88, 0x7d, 0x86, 0xbe, 0xca, 0x1f, 0xd6, 0xbe, 0xa6, 0xfe, 0xac, 0x3d,
  0xce, 0xc7, 0xae, 0x3d, 0xfa, 0xdd, 0x7b, 0x3d, 0x15, 0xf1, 0x6a, 0xbe,
  0x70, 0x03, 0xec, 0x3e, 0xc6, 0x6d, 0x21, 0xbb, 0x69, 0xa1, 0x7f, 0x3e,
  0x1e, 0x85, 0x72, 0x3b, 0x74, 0xc4, 0x6c, 0xbd, 0x82, 0xd5, 0xb7, 0x3a,
  0x5b, 0x92, 0xac, 0x3c, 0xdb, 0x25, 0x93, 0x3e, 0xfc, 0xfe, 0xe5, 0xbd,
  0x00, 0xac, 0xa4, 0x3d, 0xec, 0x63, 0x82, 0xbe, 0x96, 0x0d, 0xae, 0xbe,
  0xe1, 0x60, 0x8a, 0x3e, 0xb9, 0xc5, 0xc6, 0x3d, 0xf0, 0xd0, 0xe3, 0x3e,
  0x69, 0x6a, 0x8e, 0xbd, 0xe1, 0xd6, 0x1b, 0x3f, 0xa5, 0xe4, 0xe1, 0x3d,
  0x69, 0xd3, 0x1d, 0x3e, 0xfb, 0x41, 0xb7, 0x3d, 0x1e, 0x85, 0x10, 0xbe,
  0xd6, 0xe9, 0xdd, 0x3d, 0x3d, 0x6f, 0x47, 0xbe, 0x96, 0xf1, 0x15, 0x3e,
  0x4c, 0xa3, 0x45, 0xbd, 0x18, 0x7e, 0x1b, 0xbd, 0x06, 0xd5, 0x26, 0xbf,
  0x91, 0x07, 0x8b, 0xbe, 0x88, 0x50, 0x14, 0xbc, 0xce, 0x5a, 0x85, 0xbe,
  0xb3, 0x38, 0xf9, 0x3e, 0x77, 0xb2, 0x2b, 0x3b, 0x39, 0x24, 0x06, 0xbe,
  0x52, 0xcc, 0xfd, 0xbd, 0x86, 0xd5, 0x8c, 0xbe, 0xae, 0xb9, 0x4f, 0xbe,
  0x4d, 0xd9, 0xd5, 0xbd, 0xca, 0x64, 0xad, 0xbe, 0xf3, 0xcc, 0x14, 0xbf,
  0xa5, 0x49, 0x63, 0x3e, 0x35, 0xf8, 0x1a, 0x3d, 0x54, 0x2f, 0x93, 0xbe,
  0x8d, 0x3d, 0xc1, 0x3a, 0x25, 0xa8, 0x85, 0x3e, 0xc0, 0xbf, 0x07, 0xbd,
  0x5d, 0x2d, 0x1d, 0x3c, 0x5f, 0xa6, 0x42, 0x3e, 0x54, 0xc7, 0xbf, 0x3d,
  0x73, 0x8c, 0xcc, 0x3d, 0x4a, 0x0a, 0x9c, 0x3e, 0x06, 0x7e, 0xfb, 0xbc,
  0x6a, 0x53, 0x8a, 0xbe, 0xa5, 0x2c, 0x73, 0xbe, 0xf6, 0x53, 0x24, 0x3e,
  0xcf, 0xc8, 0x18, 0xbe, 0xdb, 0x0a, 0x2a, 0x3e, 0xe8, 0xb9, 0x98, 0xbc,
  0xdf, 0x99, 0x85, 0x3d, 0x31, 0xfc, 0x21, 0xbd, 0x3c, 0x37, 0x77, 0x3e,
  0x0c, 0x8e, 0x86, 0xbe, 0x2a, 0x99, 0x03, 0xbe, 0x47, 0x4f, 0x11, 0x3c,
  0x3b, 0x48, 0xb5, 0x3d, 0xe9, 0xd8, 0x90, 0x3c, 0x26, 0x89, 0x63, 0x3c,
  0x9e, 0x6a, 0x05, 0x3e, 0x67, 0x59, 0x44, 0xbd, 0x03, 0x12, 0x53, 0x3a,
  0xd4, 0x5c, 0x34, 0xbd, 0x89, 0x8d, 0x48, 0xbb, 0x24, 0x49, 0x82, 0x3e,
  0x50, 0x6d, 0x81, 0x39, 0xb6, 0xf6, 0x09, 0xbd, 0x6c, 0xb4, 0x36, 0xbd,
  0xee, 0x10, 0x0e, 0xbe, 0x5a, 0x09, 0xb4, 0xbe, 0xc7, 0x60, 0x69, 0xbe,
  0xf8, 0xcb, 0x73, 0x3d, 0xe0, 0x59, 0xa7, 0x3c, 0x29, 0x54, 0x20, 0x3c,
  0x45, 0x13, 0x6f, 0xbe, 0x06, 0x2e, 0xa4, 0xbc, 0xc2, 0x77, 0x61, 0xbd,
  0x0f, 0x8e, 0x5d, 0xbd, 0x79, 0x39, 0x6d, 0xbe, 0x73, 0x5f, 0xd8, 0xbd,
  0x96, 0x18, 0xe6, 0x3d, 0x2a, 0x19, 0x2c, 0xbe, 0x27, 0x52, 0x26, 0xbc,
  0xb8, 0x8f, 0x13, 0xbd, 0xe9, 0xbd, 0x60, 0xbe, 0xbc, 0x44, 0x86, 0xbe,
  0xf3, 0x5b, 0x02, 0xbf, 0xc6, 0xb5, 0xb3, 0xbd, 0x43, 0xf2, 0x4a, 0xbd,
  0x29, 0x69, 0x9e, 0xbb, 0xee, 0xf0, 0xa9, 0xbe, 0xfe, 0x18, 0x3f, 0xbd,
  0xd4, 0xf8, 0x63, 0xbe, 0xb6, 0xbf, 0xf8, 0xbd, 0x4b, 0x88, 0xac, 0xbd,
  0x67, 0x8c, 0xcc, 0x3a, 0x28, 0x54, 0x22, 0x3d, 0x49, 0xaf, 0x28, 0xbe,
  0x98, 0xd0, 0xbe, 0xbc, 0xd8, 0x98, 0x96, 0x3c, 0x30, 0xd5, 0xd9, 0x3e,
  0xdb, 0x01, 0xdf, 0xbd, 0x32, 0x40, 0xc3, 0xbd, 0x95, 0xe6, 0x33, 0xbe,
  0xb7, 0x89, 0x35, 0xbd, 0x39, 0x68, 0xf7, 0xbc, 0xb3, 0x61, 0xb5, 0x3e,
  0x60, 0x8c, 0x9c, 0xbc, 0x6b, 0xa4, 0x9c, 0xbd, 0xc5, 0x02, 0xc5, 0xbd,
  0x40, 0x98, 0x32, 0x3d, 0x8c, 0x8f, 0x4e, 0xbd, 0xb6, 0xa5, 0x87, 0x3e,
  0xca, 0x88, 0x7b, 0xbe, 0x72, 0x3f, 0x21, 0x3d, 0xb7, 0x92, 0x14, 0x3d,
  0x04, 0x8d, 0x57, 0x3e, 0x4d, 0xa0, 0x22, 0xbe, 0xf5, 0x71, 0x83, 0xbd,
  0xa5, 0x31, 0xe3, 0xbd, 0x0a, 0x38, 0x92, 0x3d, 0xa0, 0x0e, 0x4d, 0x3c,
  0x70, 0x33, 0xeb, 0x3b, 0xe2, 0x41, 0x9a, 0x3d, 0xe5, 0x12, 0xe1, 0xbd,
  0x30, 0xf9, 0x7d, 0xbe, 0xb6, 0x66, 0xf1, 0x3d, 0x88, 0x03, 0xfe, 0xb9,
  0x61, 0xb6, 0x39, 0x3e, 0xb7, 0xb6, 0x0a, 0x3d, 0x23, 0x50, 0x91, 0x3d,
  0x9b, 0x4b, 0x6a, 0xba, 0xbe, 0xf9, 0x74, 0x3d, 0xd5, 0xbe, 0x22, 0x3b,
  0xce, 0x3c, 0x7f, 0xbb, 0xe6, 0x7c, 0xd4, 0x3d, 0x98, 0x86, 0xc6, 0x3d,
  0x4e, 0x55, 0x11, 0xbc, 0x9e, 0x19, 0xc6, 0x3d, 0xe7, 0xad, 0xb2, 0x3c,
  0xc5, 0x58, 0x14, 0xbd, 0x6a, 0xdf, 0x08, 0xbe, 0x2f, 0x5d, 0x19, 0x3c,
  0x98, 0xa5, 0x95, 0xbc, 0xfd, 0x76, 0x4c, 0x3d, 0x1a, 0xd2, 0xf6, 0x3d,
  0xbd, 0xc0, 0x39, 0x3d, 0xbd, 0x69, 0x84, 0x3d, 0xa7, 0xa6, 0xab, 0xbe,
  0x06, 0x1f, 0x93, 0xbe, 0x3a, 0x05, 0x82, 0xbd, 0x06, 0x07, 0x51, 0x3e,
  0x46, 0xb3, 0x41, 0xbe, 0xc6, 0x70, 0x72, 0x3e, 0x6a, 0xc1, 0xec, 0xbc,
  0x75, 0xd3, 0x1c, 0x3e, 0x3f, 0xeb, 0xf0, 0xbe, 0xb0, 0x65, 0xfa, 0xbd,
  0xd7, 0x17, 0x2b, 0x3d, 0xcd, 0x98, 0x0d, 0x3d, 0x2c, 0x33, 0x04, 0xbd,
  0x75, 0x49, 0x1e, 0xbe, 0x88, 0xe3, 0xce, 0xbd, 0x6a, 0xd6, 0x90, 0xbd,
  0xfb, 0xa1, 0x33, 0x3d, 0x15, 0xa7, 0x6e, 0xbe, 0x52, 0xe7, 0xa1, 0xbe,
  0x18, 0x21, 0x19, 0x3e, 0x77, 0x2e, 0x0a, 0xbd, 0xee, 0xb9, 0x15, 0x3e,
  0x9d, 0x23, 0x43, 0xbe, 0xbd, 0x50, 0xa4, 0x3e, 0xff, 0xe4, 0x65, 0x3c,
  0x50, 0xdc, 0xc8, 0xbd, 0x33, 0xe9, 0xaf, 0xbe, 0x7d, 0x0e, 0x25, 0xbe,
  0xd7, 0x85, 0x0e, 0x3e, 0x3a, 0xd9, 0x52, 0xbe, 0x54, 0x9a, 0xaa, 0x3e,
  0x7c, 0x87, 0xd3, 0xbd, 0x33, 0x50, 0x2d, 0x3e, 0xe1, 0xc4, 0x50, 0x3d,
  0x28, 0x6c, 0x98, 0xbd, 0xd8, 0xc5, 0x32, 0xbe, 0x7d, 0x99, 0x17, 0xbe,
  0x52, 0xc0, 0xf4, 0xbc, 0x65, 0xe9, 0x24, 0xbd, 0xb9, 0x28, 0xca, 0x3d,
  0x66, 0x29, 0xdf, 0x3d, 0x4c, 0x58, 0xba, 0xbe, 0x4a, 0x45, 0x12, 0xbe,
  0x81, 0xe2, 0x26, 0xbe, 0xe1, 0xe7, 0xb6, 0x3e, 0x84, 0xfc, 0x97, 0xbd,
  0xbf, 0x80, 0x56, 0x3e, 0xfa, 0x42, 0x99, 0x3c, 0x1f, 0xb7, 0xd1, 0x3d,
  0x4f, 0x27, 0xa8, 0xbd, 0xd7, 0xab, 0x8d, 0xbe, 0x56, 0xa5, 0x4e, 0x3d,
  0x68, 0x7d, 0x21, 0xbd, 0xce, 0x6e, 0x01, 0xbe, 0xff, 0x68, 0x13, 0x3d,
  0x5c, 0x33, 0x2c, 0x3b, 0x71, 0xeb, 0x00, 0xbe, 0x89, 0x63, 0x63, 0xba,
  0xcb, 0x3e, 0x1b, 0x3d, 0x75, 0xdb, 0xf5, 0xbd, 0x0d, 0x28, 0xed, 0xbd,
  0x5e, 0x71, 0xe5, 0xbd, 0x8e, 0xaa, 0x95, 0xbd, 0xdf, 0x24, 0xdc, 0xbd,
  0xfc, 0x4e, 0xe0, 0x3d, 0x4c, 0x15, 0xc7, 0xbd, 0x85, 0x86, 0xab, 0xbe,
  0x54, 0xae, 0xab, 0xbc, 0x08, 0xbb, 0x85, 0xbe, 0xfa, 0x03, 0x02, 0xbe,
  0x9f, 0x02, 0x92, 0xbe, 0xe0, 0xce, 0xc3, 0x3c, 0xf3, 0x34, 0xfd, 0xbd,
  0xa1, 0xed, 0x5c, 0xbe, 0xb6, 0x58, 0x13, 0xbe, 0x1a, 0x64, 0x94, 0xbd,
  0xea, 0xc9, 0xab, 0xbe, 0xb3, 0x78, 0xc9, 0xbe, 0xf6, 0x1d, 0x32, 0x3e,
  0x86, 0xd1, 0x14, 0x3e, 0x55, 0xcb, 0x04, 0xbd, 0x66, 0x6a, 0x8b, 0xbe,
  0x96, 0x2c, 0xf3, 0xbd, 0xcf, 0x0b, 0x18, 0xbe, 0x72, 0x00, 0x91, 0xb8,
  0x13, 0x39, 0x0b, 0x3e, 0xfe, 0xb8, 0x18, 0x3d, 0x57, 0xfd, 0xff, 0xbd,
  0x43, 0x74, 0x85, 0x3d, 0xbd, 0xd9, 0x1f, 0xbe, 0x3a, 0x6f, 0x6a, 0xbd,
  0x7e, 0x5f, 0x94, 0xbe, 0xf3, 0xfc, 0xcf, 0x3c, 0xbf, 0x28, 0xf1, 0xbc,
  0x50, 0xa2, 0x6f, 0xbe, 0x3a, 0x34, 0x85, 0xb8, 0x11, 0xc9, 0x90, 0xbd,
  0x11, 0x2b, 0xb9, 0xbd, 0xb3, 0x48, 0x43, 0xbe, 0x2e, 0x52, 0x12, 0xbe,
  0x66, 0x00, 0x07, 0x3d, 0x46, 0x4f, 0x18, 0xbd, 0x45, 0xb7, 0x6f, 0xbe,
  0x21, 0xdf, 0xf1, 0xbd, 0x76, 0x9e, 0xfe, 0xbd, 0xdd, 0xf8, 0xf8, 0xbd,
  0xc4, 0x81, 0xbc, 0xbb, 0xc7, 0x12, 0x08, 0xbe, 0xae, 0x62, 0x8e, 0xbe,
  0xf2, 0xeb, 0x07, 0xbe, 0xd7, 0xdf, 0x32, 0xbd, 0xb4, 0x1e, 0x48, 0xbe,
  0x12, 0xeb, 0x44, 0xbd, 0x5c, 0x57, 0x01, 0xbd, 0x69, 0xb1, 0xeb, 0xbe,
  0x78, 0xb3, 0xa2, 0x3e, 0x5d, 0xd0, 0xc3, 0xbe, 0x66, 0xa9, 0x1e, 0xbe,
  0x53, 0x1d, 0x73, 0x3c, 0x42, 0x77, 0xd5, 0xbd, 0x4b, 0x1a, 0x7e, 0xbe,
  0x15, 0x42, 0x09, 0xbe, 0xbf, 0xfa, 0x83, 0x3c, 0x1d, 0x0e, 0x65, 0xbe,
  0xc8, 0xb7, 0x2e, 0x3e, 0x6f, 0xdf, 0xab, 0xbe, 0xf2, 0x58, 0xa6, 0xbd,
  0x02, 0xaf, 0x98, 0xbe, 0xc4, 0x33, 0x54, 0xbe, 0x61, 0x43, 0x08, 0xbe,
  0x81, 0xb5, 0x97, 0xbe, 0x7a, 0x51, 0x7e, 0x3e, 0x9c, 0x61, 0x8a, 0x3d,
  0xe9, 0x29, 0xeb, 0xbd, 0x3c, 0x9f, 0x0a, 0x3d, 0x0d, 0x8d, 0x7a, 0x3e,
  0x85, 0xb6, 0x87, 0xbd, 0xed, 0x1a, 0xb5, 0x3e, 0x21, 0xdb, 0x90, 0xbe,
  0x2c, 0x82, 0xf2, 0xbd, 0x1f, 0x9d, 0x00, 0x3f, 0x5a, 0x7d, 0xb2, 0xbd,
  0x96, 0xf8, 0x2d, 0xbe, 0x5c, 0x9b, 0x17, 0xbe, 0xc7, 0x15, 0x22, 0xbe,
  0x3b, 0x50, 0x4f, 0xbe, 0xbb, 0xd7, 0x00, 0xbe, 0xa3, 0xea, 0xf4, 0x3e,
  0x81, 0xd7, 0x9a, 0xbe, 0x7a, 0xdd, 0x86, 0xbe, 0x30, 0x78, 0x48, 0xbe,
  0x19, 0xd7, 0xf1, 0x3d, 0x0c, 0x8e, 0xc1, 0xbe, 0x02, 0x93, 0x66, 0x3e,
  0xbd, 0xcb, 0x17, 0xbe, 0x4f, 0xf5, 0x13, 0xbd, 0x1b, 0xc4, 0x3d, 0x3f,
  0x89, 0x07, 0xf3, 0xbd, 0x86, 0x83, 0x80, 0x3e, 0x24, 0xb2, 0x0e, 0x3e,
  0x98, 0xd9, 0x25, 0xbe, 0x72, 0xc4, 0x28, 0xbe, 0xf5, 0x47, 0x9a, 0xbe,
  0x5a, 0x23, 0xd4, 0x3e, 0x91, 0xeb, 0xc5, 0x3d, 0xec, 0xc3, 0x68, 0xbe,
  0xf0, 0xda, 0x63, 0xbe, 0x5b, 0x79, 0x9c, 0x3d, 0x3b, 0x0e, 0x5f, 0xbe,
  0x2f, 0xbc, 0x8b, 0x3e, 0xa2, 0x7d, 0xcb, 0x3c, 0xbb, 0x0a, 0x25, 0xbe,
  0xe7, 0x5b, 0x26, 0x3f, 0xbb, 0xa7, 0x4d, 0x3d, 0x68, 0x1d, 0x43, 0xbe,
  0x11, 0xc5, 0x77, 0xbb, 0x49, 0xd4, 0x54, 0xbe, 0xd9, 0x45, 0x9c, 0xbe,
  0x51, 0x87, 0x78, 0xbd, 0x45, 0x89, 0x36, 0x3e, 0x91, 0xb7, 0x84, 0xbe,
  0x38, 0x4f, 0x0d, 0x3e, 0x21, 0xff, 0x31, 0xbe, 0xf9, 0x1e, 0x0a, 0x3e,
  0xfd, 0x54, 0x66, 0xbd, 0xab, 0xdb, 0x0b, 0x3e, 0xc0, 0x0c, 0x88, 0xbc,
  0x7f, 0x0c, 0x80, 0xbe, 0xb1, 0xa4, 0x06, 0x3f, 0xaa, 0xc1, 0x32, 0xbe,
  0x33, 0x63, 0xe8, 0xbd, 0x59, 0x95, 0xf5, 0xbd, 0xdb, 0x07, 0xc2, 0xbc,
  0xb1, 0x26, 0x27, 0xbe, 0x51, 0x2c, 0xcb, 0xbe, 0x46, 0x0f, 0x4b, 0x3d,
  0xf5, 0xe0, 0x2a, 0xbe, 0xb7, 0xf7, 0x37, 0x3e, 0x09, 0xc2, 0x2b, 0xbd,
  0xea, 0xaa, 0xe1, 0xbd, 0xf0, 0xe7, 0xc8, 0xbd, 0x0c, 0x82, 0x56, 0xbc,
  0x3e, 0x98, 0x89, 0xbe, 0x3a, 0xa6, 0xea, 0xbd, 0xfd, 0x8c, 0x29, 0x3e,
  0x34, 0x5a, 0x5c, 0xbe, 0xe5, 0x09, 0x27, 0xbc, 0xfc, 0xbc, 0x27, 0xbe,
  0x1a, 0x68, 0x92, 0xbd, 0xa6, 0xd3, 0xcf, 0xbc, 0x58, 0x14, 0x6f, 0xbe,
  0x1a, 0xf1, 0x43, 0xbc, 0xbd, 0x2c, 0xaf, 0xbb, 0x10, 0x2f, 0x0a, 0xbe,
  0x5c, 0x8d, 0x4d, 0xbd, 0x3c, 0xd3, 0xd9, 0xbd, 0x4f, 0xca, 0xf9, 0xbd,
  0x13, 0x0c, 0xfa, 0x3d, 0xdb, 0x10, 0x0d, 0xbc, 0xf4, 0x16, 0xb2, 0xbb,
  0x17, 0x07, 0x8e, 0x3e, 0x79, 0x9e, 0x80, 0xbe, 0x7e, 0xd9, 0x18, 0x3d,
  0x38, 0x3f, 0xee, 0x3c, 0x99, 0xb6, 0x5d, 0x3e, 0x4f, 0x5b, 0x7f, 0x3e,
  0x07, 0x74, 0x06, 0x3c, 0x73, 0xf7, 0x53, 0x3e, 0x59, 0x91, 0x4d, 0x3e,
  0x32, 0x10, 0x56, 0xbd, 0x74, 0x4b, 0x51, 0x3e, 0xcd, 0x9a, 0x41, 0xbe,
  0x87, 0x20, 0xc3, 0xbe, 0x85, 0x85, 0xd7, 0xbe, 0x03, 0xcb, 0x3f, 0xbd,
  0xff, 0xe1, 0x23, 0xbe, 0x4c, 0x35, 0xac, 0x3d, 0xfc, 0xe3, 0x24, 0x3d,
  0xca, 0x04, 0x16, 0x3e, 0x2a, 0x94, 0x23, 0x3c, 0x27, 0x39, 0xce, 0x3e,
  0xc4, 0x5a, 0xd9, 0xbe, 0x77, 0x8a, 0x2b, 0xbe, 0x33, 0xf3, 0x81, 0xbd,
  0xa9, 0x3e, 0xa3, 0xbd, 0xb0, 0x87, 0xd3, 0xbd, 0x9b, 0x60, 0x9f, 0x3d,
  0xc0, 0xd1, 0xc9, 0xbd, 0x8f, 0x8a, 0xbf, 0xbd, 0xad, 0x69, 0xf1, 0x3e,
  0x0c, 0x78, 0x4b, 0x3e, 0xa9, 0x8a, 0xdc, 0x3d, 0x92, 0xdd, 0x90, 0x3c,
  0xb7, 0x92, 0xa7, 0xbd, 0xb4, 0x3a, 0x8f, 0xbd, 0x08, 0x40, 0x0a, 0xbc,
  0x8e, 0x52, 0x4f, 0x3e, 0xce, 0xb5, 0xc6, 0xbd, 0xb1, 0xe2, 0x9b, 0xbd,
  0x22, 0x04, 0x27, 0x3d, 0xfb, 0x76, 0x87, 0xbd, 0xf5, 0x08, 0x4e, 0xbe,
  0x17, 0x39, 0x3f, 0x3e, 0x63, 0x45, 0x88, 0xbe, 0x8e, 0x65, 0x37, 0xbe,
  0x6c, 0x0e, 0x6b, 0xbd, 0x9c, 0x6f, 0x82, 0xbd, 0x4e, 0x6e, 0x80, 0x3d,
  0xb8, 0x6b, 0x0d, 0xbf, 0xa0, 0x59, 0x1c, 0xbe, 0x33, 0xde, 0x53, 0xbe,
  0x6f, 0xad, 0xfc, 0xba, 0x13, 0x9a, 0x4c, 0x3e, 0x3f, 0xb5, 0x47, 0xbc,
  0x55, 0x1d, 0x00, 0xbe, 0xdd, 0x9e, 0x0a, 0xbd, 0xc8, 0xd1, 0xb5, 0x3d,
  0x0d, 0x3e, 0xe3, 0x3d, 0x37, 0x93, 0xb6, 0x3d, 0xf7, 0x11, 0x37, 0xbd,
  0xa0, 0x33, 0x02, 0xbd, 0x86, 0x17, 0x5d, 0x3e, 0x8f, 0x4f, 0xa6, 0xbe,
  0x03, 0x3b, 0x00, 0x3d, 0xc6, 0x03, 0x21, 0xbf, 0x12, 0xc2, 0x05, 0xbe,
  0x0f, 0x4b, 0xad, 0xbd, 0x29, 0x7f, 0x07, 0xbd, 0x7c, 0x28, 0xcf, 0x3e,
  0x50, 0x15, 0x2a, 0xbe, 0x00, 0xf7, 0x78, 0xbe, 0x5b, 0x9e, 0x3d, 0xbe,
  0x40, 0xb2, 0xf6, 0x3c, 0xd7, 0x66, 0xa6, 0xbe, 0x74, 0xc5, 0x26, 0xbe,
  0x45, 0xe3, 0xd4, 0xbe, 0x5e, 0x4d, 0xd5, 0xbd, 0x22, 0x83, 0x68, 0x3e,
  0x42, 0x2a, 0x97, 0xbd, 0x20, 0x34, 0xab, 0x3d, 0xa1, 0x6a, 0x1b, 0xbf,
  0xd1, 0x05, 0x12, 0xbd, 0x27, 0x32, 0x93, 0xbc, 0x50, 0xd6, 0x5e, 0xbd,
  0x96, 0xdf, 0x32, 0xbd, 0xb9, 0xb1, 0xba, 0xbe, 0xa3, 0xe1, 0x05, 0xbe,
  0x4a, 0xfc, 0x16, 0xbd, 0x84, 0x34, 0x24, 0xbe, 0xd8, 0x1b, 0xd3, 0xbe,
  0x0d, 0xb0, 0xdc, 0x3d, 0x01, 0xcf, 0xc7, 0xbe, 0xdd, 0x77, 0x8b, 0xbe,
  0x2e, 0x40, 0x69, 0x3d, 0x52, 0xba, 0x9b, 0xbe, 0xbb, 0x72, 0x37, 0x3c,
  0x10, 0x1c, 0x64, 0xbe, 0xb3, 0x6f, 0x2f, 0xbe, 0xd5, 0x7b, 0x98, 0xbe,
  0x5b, 0xc3, 0x42, 0x3d, 0x64, 0x81, 0xba, 0x3e, 0x44, 0x66, 0x95, 0x3d,
  0xf5, 0x79, 0x3f, 0x3e, 0x68, 0x63, 0xe1, 0x3b, 0x34, 0xbf, 0x98, 0x3e,
  0x11, 0xec, 0x36, 0xba, 0xb1, 0xb3, 0x8a, 0x3e, 0x37, 0xd6, 0xe2, 0xbc,
  0x98, 0x0f, 0x2e, 0x3d, 0xb9, 0xcb, 0xaa, 0xbd, 0x38, 0xa2, 0x21, 0xbe,
  0x99, 0xcb, 0x0f, 0x3d, 0xc9, 0xfd, 0x99, 0x3d, 0x15, 0x07, 0x29, 0x3e,
  0x2e, 0xbb, 0x6b, 0x3c, 0xf4, 0x63, 0xa9, 0xbd, 0x3c, 0x9a, 0x1a, 0x3d,
  0xba, 0x11, 0x6f, 0xbe, 0x1b, 0x25, 0xe1, 0xbd, 0x13, 0xb5, 0x98, 0x3d,
  0x04, 0x86, 0x07, 0xbc, 0x85, 0x10, 0x33, 0x3d, 0x42, 0x14, 0x8d, 0xbd,
  0x52, 0x2c, 0x28, 0x3e, 0x2b, 0x06, 0xe3, 0xbd, 0x3a, 0x47, 0x58, 0xbe,
  0xbb, 0x3e, 0x40, 0xbe, 0x4c, 0x43, 0x31, 0xbe, 0x9e, 0xdd, 0x94, 0xbe,
  0x0f, 0x1a, 0x81, 0xbe, 0x71, 0x49, 0x20, 0x3b, 0xf0, 0xcb, 0x75, 0x3b,
  0x4f, 0x8c, 0x68, 0x3d, 0xc1, 0xa6, 0x6e, 0xbe, 0x61, 0x47, 0x78, 0x3d,
  0x2d, 0xc5, 0x9a, 0xbd, 0xa0, 0xac, 0x3e, 0xbd, 0xcc, 0x7a, 0x0e, 0x3d,
  0x4c, 0x59, 0x6c, 0xbd, 0x39, 0x1d, 0x78, 0x3d, 0x21, 0xc2, 0x5d, 0xbe,
  0xaa, 0x44, 0x35, 0x3e, 0xb4, 0xb5, 0x71, 0xbe, 0x8d, 0x8f, 0x1e, 0xbe,
  0x99, 0xdb, 0x6b, 0xbe, 0x25, 0xff, 0x0a, 0xbe, 0xbd, 0x11, 0xc3, 0xbd,
  0x07, 0xff, 0x0f, 0xbe, 0x35, 0x7d, 0x42, 0xbb, 0x8e, 0x60, 0xaf, 0xbd,
  0x91, 0x9d, 0xb2, 0x3d, 0xf4, 0x46, 0xaa, 0xbc, 0x1c, 0x62, 0x3f, 0xbe,
  0x48, 0x7d, 0xc7, 0x3c, 0x49, 0x05, 0xcc, 0x3d, 0x8b, 0x99, 0x18, 0xbe,
  0x8e, 0x1b, 0xa1, 0x3d, 0x99, 0xb2, 0x3b, 0x3e, 0x13, 0x98, 0x82, 0xbc,
  0x93, 0xdd, 0xe9, 0x3d, 0x0f, 0x9e, 0x6a, 0xbe, 0x92, 0x1f, 0x83, 0x3d,
  0x9c, 0x15, 0x0e, 0xbe, 0x1c, 0x0b, 0x61, 0xbe, 0x92, 0xf9, 0x11, 0xbd,
  0xc4, 0x1d, 0x2b, 0xbe, 0x7d, 0xeb, 0x9d, 0xbe, 0x12, 0xe1, 0x53, 0xbe,
  0xb8, 0xf5, 0x88, 0xbd, 0x36, 0x6c, 0xe2, 0x3d, 0xd8, 0x41, 0x89, 0x3d,
  0x18, 0x14, 0x6f, 0xbe, 0x55, 0x40, 0xdd, 0x3d, 0x31, 0x2e, 0xe7, 0xbd,
  0x38, 0xe5, 0x14, 0xbe, 0x9c, 0x24, 0x19, 0xbe, 0x92, 0x6c, 0x06, 0xbe,
  0x9f, 0x83, 0xfd, 0x3b, 0x65, 0x7d, 0xa5, 0x3d, 0x21, 0x25, 0x0a, 0x3e,
  0xec, 0xcf, 0x0a, 0xbe, 0x16, 0x69, 0x20, 0xbe, 0x2e, 0xc3, 0xd8, 0x3c,
  0x38, 0x34, 0xfa, 0xbd, 0x78, 0x8f, 0xd5, 0x3d, 0x10, 0xf9, 0x44, 0x3d,
  0x54, 0xba, 0x80, 0xbd, 0xb2, 0x3f, 0xdd, 0xbd, 0xaa, 0x7d, 0x0b, 0xbe,
  0x06, 0x80, 0x9f, 0xbc, 0x69, 0xc3, 0x5e, 0xbe, 0x74, 0x91, 0x9b, 0x3d,
  0x97, 0x87, 0xa9, 0xbe, 0x8c, 0xba, 0xb1, 0xbd, 0x83, 0xa3, 0x1c, 0xbe,
  0xf6, 0xcd, 0x1a, 0xbe, 0xb7, 0xde, 0x67, 0x3d, 0x82, 0xeb, 0x5f, 0x3d,
  0x1e, 0xe6, 0x61, 0xbe, 0xe0, 0xe9, 0x13, 0x3c, 0xf1, 0xcd, 0x4b, 0xbe,
  0xf6, 0x5f, 0xd9, 0x3b, 0x36, 0x31, 0x43, 0xbe, 0xec, 0x41, 0xea, 0x3d,
  0xb8, 0xbe, 0x57, 0xbe, 0x08, 0x01, 0x30, 0x3e, 0x68, 0x0d, 0x67, 0x3d,
  0x20, 0x82, 0xcc, 0xbc, 0x69, 0xcf, 0xb7, 0xbd, 0x76, 0x94, 0x7c, 0xbc,
  0xf7, 0xfe, 0xb5, 0x3d, 0xeb, 0x74, 0xa1, 0xbe, 0x7e, 0xaf, 0x1e, 0xbe,
  0x5e, 0x4d, 0x0b, 0x3d, 0x32, 0xda, 0xa9, 0xbe, 0x8f, 0xca, 0x5f, 0xbe,
  0xd1, 0xae, 0x44, 0xbe, 0x7b, 0xd3, 0x82, 0xbe, 0x17, 0x23, 0xbc, 0xbd,
  0xec, 0xe9, 0x46, 0xbd, 0xb9, 0xc8, 0x31, 0xbe, 0x5e, 0x01, 0x0a, 0x3c,
  0xed, 0x93, 0x25, 0xbe, 0x97, 0xde, 0x47, 0xbe, 0x16, 0x85, 0x57, 0xbd,
  0x15, 0x08, 0x1f, 0xbe, 0x62, 0x22, 0x96, 0xbc, 0x9b, 0x53, 0x3f, 0xbe,
  0xdb, 0xb1, 0x5e, 0xbc, 0x5e, 0x1c, 0xc8, 0x3d, 0xe5, 0x4f, 0x01, 0xbd,
  0xe1, 0xb1, 0x92, 0xbd, 0xc6, 0xdc, 0x86, 0xbe, 0xce, 0xc5, 0x21, 0x3d,
  0x63, 0xc5, 0x1d, 0xbe, 0xe8, 0x0a, 0xdc, 0xbd, 0xa9, 0xa3, 0x0f, 0x3e,
  0x77, 0x40, 0x53, 0x3e, 0x9b, 0xa7, 0xff, 0x3d, 0x7d, 0x2b, 0xc4, 0x3d,
  0xa5, 0x55, 0x0a, 0x3e, 0xa2, 0x1b, 0x66, 0xbe, 0xa7, 0x93, 0xc7, 0xbd,
  0xa1, 0x14, 0x5a, 0xbe, 0xdd, 0x52, 0x40, 0xbd, 0xfc, 0x60, 0x86, 0x3e,
  0xe0, 0x3a, 0x03, 0xbe, 0x4b, 0xc3, 0xb9, 0x3e, 0x98, 0x38, 0xfb, 0xbc,
  0x0d, 0x67, 0x1b, 0xbd, 0x53, 0x3a, 0x40, 0x3e, 0x81, 0x32, 0x50, 0x3c,
  0x39, 0x18, 0xbc, 0x3e, 0xe9, 0xd1, 0xd3, 0x3d, 0x37, 0x92, 0x5c, 0x3e,
  0x0e, 0x35, 0xd8, 0xbd, 0xaa, 0x27, 0xbd, 0x3d, 0xa0, 0x85, 0x29, 0x3e,
  0x4d, 0x88, 0x6c, 0x3d, 0x5f, 0xb8, 0xb4, 0xbd, 0x1c, 0xf9, 0xe9, 0x3d,
  0x40, 0xae, 0x72, 0x3d, 0x81, 0xea, 0x0e, 0x3e, 0x1f, 0x5a, 0xc9, 0x3e,
  0x51, 0x4f, 0xf7, 0xbc, 0x14, 0x5d, 0x76, 0x3e, 0xbf, 0xc0, 0x89, 0x3d,
  0xe8, 0xd3, 0x09, 0x3e, 0x31, 0x3e, 0x3b, 0xbe, 0x3f, 0x8f, 0x5a, 0x3d,
  0x15, 0x20, 0x15, 0xbe, 0xdd, 0x75, 0x32, 0xbd, 0xa1, 0xde, 0xeb, 0x3d,
  0xfa, 0x60, 0x16, 0xbd, 0x70, 0x10, 0x01, 0xbe, 0xa6, 0x54, 0x5a, 0xbe,
  0x9f, 0x72, 0x38, 0x3e, 0xa5, 0xae, 0x3d, 0xbd, 0x2f, 0xcf, 0x28, 0xbe,
  0x19, 0x78, 0x34, 0x3d, 0xce, 0x89, 0x3b, 0x3d, 0x79, 0x11, 0xa9, 0xbd,
  0x46, 0x82, 0xb9, 0xbd, 0x16, 0x8b, 0x55, 0x3e, 0x51, 0x94, 0xcd, 0xbd,
  0x77, 0x9a, 0xc7, 0x3e, 0x3e, 0x5b, 0x8d, 0x3d, 0x4d, 0x6f, 0x0e, 0x3d,
  0xf0, 0xac, 0x99, 0x3d, 0x56, 0xbe, 0xd8, 0x3c, 0x16, 0xed, 0xd4, 0x3c,
  0x5c, 0xb3, 0x0e, 0xbd, 0xd6, 0x46, 0x76, 0x3e, 0x25, 0xa0, 0x3c, 0xbe,
  0x61, 0xc7, 0x26, 0xbe, 0x0c, 0x91, 0xf5, 0xbd, 0x68, 0x54, 0x9f, 0x3b,
  0x21, 0x89, 0xc9, 0xbd, 0xd0, 0x74, 0xe0, 0xbd, 0x74, 0x40, 0xce, 0xbd,
  0xcb, 0xf3, 0xc1, 0xbd, 0x14, 0x88, 0x2b, 0x3e, 0x14, 0xe7, 0x61, 0xbe,
  0xd7, 0xbb, 0x65, 0xbd, 0x6b, 0xf9, 0x02, 0xbe, 0x34, 0x7c, 0x03, 0x3e,
  0xc9, 0x23, 0xaf, 0xbd, 0x99, 0x3e, 0x29, 0xbd, 0x85, 0x78, 0xc8, 0x3d,
  0x23, 0xc4, 0x04, 0xbd, 0x27, 0xeb, 0x2e, 0xbe, 0x57, 0x7b, 0x02, 0x3e,
  0x7b, 0xe2, 0x4c, 0xbe, 0x73, 0x16, 0x7b, 0xbe, 0xc5, 0xbc, 0xb3, 0x3d,
  0x93, 0xe2, 0x99, 0x3d, 0x68, 0x59, 0x58, 0xbe, 0x5a, 0xca, 0x6b, 0x3e,
  0xde, 0x16, 0x0d, 0xbe, 0x39, 0x0a, 0x30, 0x3d, 0x3c, 0x32, 0x4a, 0xbd,
  0x4a, 0xa2, 0xfd, 0x3d, 0xc7, 0x8e, 0xdd, 0xbd, 0x15, 0xed, 0x55, 0xbe,
  0x3c, 0x18, 0x9b, 0x3d, 0x52, 0xed, 0x8a, 0xbe, 0x36, 0xe0, 0x7b, 0xbe,
  0x50, 0xea, 0x43, 0xbe, 0x78, 0xe9, 0xf3, 0xbd, 0x7a, 0xc0, 0xa0, 0xbe,
  0x0b, 0x99, 0x25, 0x3e, 0xbb, 0xd4, 0xf3, 0xbd, 0x1d, 0x5c, 0x67, 0xbc,
  0x57, 0x93, 0xa5, 0xbd, 0x8a, 0x10, 0x3f, 0x39, 0x4f, 0xb1, 0xcc, 0x3c,
  0x90, 0x95, 0x8b, 0x3d, 0x0e, 0xdb, 0x66, 0xbc, 0xda, 0xdc, 0x18, 0xbe,
  0x7e, 0x52, 0x57, 0xbd, 0xdf, 0xe6, 0x30, 0xbe, 0x6a, 0x6a, 0x3f, 0x3e,
  0xe3, 0x6a, 0x62, 0xbd, 0x6a, 0xc9, 0x44, 0x3e, 0x1f, 0xd8, 0x90, 0xbe,
  0xfa, 0xb5, 0x37, 0x3e, 0xeb, 0xd2, 0xbe, 0xbe, 0x71, 0x0a, 0x47, 0x3e,
  0x3c, 0xe3, 0xce, 0xbd, 0x8b, 0x27, 0x91, 0xbe, 0x9a, 0xe8, 0xf8, 0x3d,
  0x79, 0xc5, 0x57, 0xbd, 0x43, 0x59, 0xd7, 0x3d, 0x60, 0x4e, 0x84, 0xbe,
  0x4f, 0x3a, 0x71, 0xbd, 0xe5, 0x54, 0xbe, 0xbc, 0x76, 0x3f, 0x00, 0xbe,
  0xb4, 0x78, 0x9b, 0xbe, 0x07, 0xf7, 0x92, 0xbe, 0x20, 0x0a, 0x82, 0xbe,
  0xf1, 0x55, 0x1f, 0x3e, 0xee, 0xda, 0x6f, 0x3e, 0x42, 0x47, 0xdf, 0xbe,
  0x19, 0xbe, 0xfd, 0x3d, 0x0e, 0xf3, 0xf6, 0xbd, 0x58, 0x89, 0xe1, 0xbe,
  0x4e, 0xf5, 0xad, 0xbe, 0x54, 0x50, 0x9b, 0xbe, 0x46, 0x87, 0xc4, 0x3e,
  0xb3, 0xe5, 0x09, 0xbe, 0x1c, 0x5e, 0xca, 0x3c, 0x94, 0x15, 0xcd, 0x3c,
  0x2c, 0x48, 0x34, 0xbc, 0x01, 0xb7, 0x5d, 0xbe, 0x58, 0xf2, 0x7c, 0xbd,
  0x42, 0x84, 0xb9, 0xbe, 0xb4, 0x28, 0x11, 0x3e, 0x26, 0xd8, 0x95, 0x3e,
  0x64, 0x75, 0xd9, 0xbe, 0xaa, 0x34, 0x35, 0xbd, 0x80, 0x22, 0xb9, 0xbe,
  0x7f, 0x1e, 0x08, 0xbf, 0x60, 0xca, 0x04, 0x3e, 0xad, 0x92, 0x7f, 0xbe,
  0x17, 0xa0, 0xfd, 0x3e, 0xdb, 0x08, 0x74, 0x3c, 0x78, 0xc1, 0x19, 0x3e,
  0x55, 0x63, 0x83, 0x3d, 0x0a, 0x22, 0x99, 0xbe, 0x7b, 0x8f, 0x73, 0x3d,
  0x9f, 0x67, 0xe8, 0xbd, 0x05, 0x57, 0xab, 0x3c, 0x75, 0xb8, 0x9e, 0x3d,
  0xb2, 0x9c, 0x29, 0x3e, 0x8b, 0xdd, 0x9f, 0xbe, 0x12, 0xee, 0x3d, 0x3e,
  0x82, 0x96, 0x43, 0xbe, 0x76, 0xe7, 0xa3, 0xbe, 0x08, 0xcd, 0x81, 0x3e,
  0x41, 0x9d, 0x0a, 0xbe, 0xec, 0x4b, 0xd9, 0x3e, 0xc3, 0x48, 0x36, 0xbd,
  0xd9, 0x16, 0x27, 0x3e, 0x3f, 0x49, 0x36, 0x3c, 0x4c, 0x18, 0xb5, 0xbe,
  0x83, 0x32, 0x24, 0xbe, 0x47, 0x64, 0xfc, 0xbe, 0x16, 0xa7, 0xad, 0xba,
  0x22, 0x71, 0x28, 0x3c, 0x06, 0x82, 0xb6, 0x3e, 0xbe, 0x0f, 0x30, 0xbf,
  0x3e, 0xaa, 0x90, 0x3e, 0x54, 0xe9, 0x2d, 0xbe, 0x2d, 0x07, 0xab, 0xbe,
  0x4e, 0x6d, 0x20, 0x3e, 0x10, 0xf6, 0x11, 0xbe, 0xa2, 0x22, 0xed, 0x3e,
  0x3e, 0x37, 0xb5, 0x3c, 0x8b, 0x82, 0x33, 0x3e, 0xa1, 0x19, 0xf0, 0xba,
  0xd7, 0xe9, 0xcf, 0xbe, 0x6b, 0xf8, 0x9f, 0xbe, 0x4e, 0x28, 0x8f, 0xbe,
  0x89, 0x77, 0xb9, 0xbe, 0x8b, 0xf4, 0x39, 0xbe, 0x27, 0xbf, 0x5b, 0x3e,
  0x86, 0xbd, 0x01, 0xbf, 0xcc, 0x3d, 0xad, 0x3e, 0x7f, 0xa6, 0xb1, 0xbd,
  0xce, 0x11, 0x94, 0xbe, 0xa9, 0xb7, 0xef, 0x3d, 0x5e, 0xf1, 0x68, 0xbd,
  0x22, 0x36, 0x85, 0x3e, 0xb9, 0x3c, 0x72, 0xbe, 0xf0, 0x38, 0x1e, 0xbc,
  0x94, 0xf4, 0xa5, 0x3b, 0x59, 0x6e, 0xbe, 0xbe, 0x7e, 0xbb, 0xa4, 0xbd,
  0x84, 0x61, 0x5a, 0xbe, 0x4c, 0xa5, 0x7b, 0x3e, 0x4f, 0x96, 0xc8, 0xbd,
  0x55, 0x04, 0x23, 0xbc, 0x39, 0x62, 0xee, 0xbe, 0x17, 0x7c, 0xfd, 0xbc,
  0xa2, 0x3d, 0x4b, 0xbd, 0xef, 0x21, 0xfc, 0xbe, 0xb8, 0x2e, 0x42, 0xbb,
  0x01, 0x8d, 0x62, 0xbd, 0xe6, 0x8a, 0x5b, 0x3e, 0x54, 0x29, 0x0e, 0xbe,
  0x3b, 0xb4, 0x6f, 0x3c, 0x62, 0xfd, 0xff, 0xff, 0x10, 0x00, 0x00, 0x00,
  0x07, 0x00, 0x00, 0x00, 0x14, 0x00, 0x00, 0x00, 0x2c, 0x00, 0x00, 0x00,
  0x02, 0x00, 0x00, 0x00, 0x10, 0x00, 0x00, 0x00, 0x70, 0x00, 0x00, 0x00,
  0x17, 0x00, 0x00, 0x00, 0x73, 0x65, 0x71, 0x75, 0x65, 0x6e, 0x74, 0x69,
  0x61, 0x6c, 0x2f, 0x64, 0x65, 0x6e, 0x73, 0x65, 0x2f, 0x4d, 0x61, 0x74,
  0x4d, 0x75, 0x6c, 0x00, 0xcc, 0xfc, 0xff, 0xff, 0xd6, 0xfd, 0xff, 0xff,
  0x04, 0x00, 0x00, 0x00, 0x08, 0x00, 0x00, 0x00, 0xff, 0xff, 0xff, 0xff,
  0x70, 0x00, 0x00, 0x00, 0x00, 0x00, 0x0e, 0x00, 0x18, 0x00, 0x08, 0x00,
  0x07, 0x00, 0x0c, 0x00, 0x10, 0x00, 0x14, 0x00, 0x0e, 0x00, 0x00, 0x00,
  0x00, 0x00, 0x00, 0x02, 0x10, 0x00, 0x00, 0x00, 0x06, 0x00, 0x00, 0x00,
  0x10, 0x00, 0x00, 0x00, 0x2c, 0x00, 0x00, 0x00, 0x01, 0x00, 0x00, 0x00,
  0x02, 0x00, 0x00, 0x00, 0x18, 0x00, 0x00, 0x00, 0x73, 0x65, 0x71, 0x75,
  0x65, 0x6e, 0x74, 0x69, 0x61, 0x6c, 0x2f, 0x66, 0x6c, 0x61, 0x74, 0x74,
  0x65, 0x6e, 0x2f, 0x43, 0x6f, 0x6e, 0x73, 0x74, 0x00, 0x00, 0x00, 0x00,
  0x34, 0xfd, 0xff, 0xff, 0x3e, 0xfe, 0xff, 0xff, 0x04, 0x00, 0x00, 0x00,
  0x10, 0x00, 0x00, 0x00, 0x72, 0x5e, 0x25, 0xc0, 0xbd, 0x48, 0x5e, 0xc0,
  0xbb, 0x7e, 0x0b, 0xbf, 0xd8, 0xf4, 0x26, 0x40, 0x26, 0xfe, 0xff, 0xff,
  0x10, 0x00, 0x00, 0x00, 0x05, 0x00, 0x00, 0x00, 0x10, 0x00, 0x00, 0x00,
  0x44, 0x00, 0x00, 0x00, 0x01, 0x00, 0x00, 0x00, 0x04, 0x00, 0x00, 0x00,
  0x32, 0x00, 0x00, 0x00, 0x73, 0x65, 0x71, 0x75, 0x65, 0x6e, 0x74, 0x69,
  0x61, 0x6c, 0x2f, 0x64, 0x65, 0x6e, 0x73, 0x65, 0x5f, 0x31, 0x2f, 0x42,
  0x69, 0x61, 0x73, 0x41, 0x64, 0x64, 0x2f, 0x52, 0x65, 0x61, 0x64, 0x56,
  0x61, 0x72, 0x69, 0x61, 0x62, 0x6c, 0x65, 0x4f, 0x70, 0x2f, 0x72, 0x65,
  0x73, 0x6f, 0x75, 0x72, 0x63, 0x65, 0x00, 0x00, 0xa8, 0xfd, 0xff, 0xff,
  0xb2, 0xfe, 0xff, 0xff, 0x04, 0x00, 0x00, 0x00, 0x40, 0x00, 0x00, 0x00,
  0xa6, 0x78, 0x93, 0x3e, 0x7c, 0x45, 0x30, 0xbf, 0xab, 0x36, 0x36, 0xbf,
  0x7e, 0xd1, 0xc2, 0x3f, 0x0c, 0xfe, 0x90, 0xbe, 0xc9, 0x8c, 0x2a, 0x3f,
  0x1e, 0x70, 0xff, 0x3d, 0x7a, 0x4d, 0x97, 0x3f, 0x0f, 0xe9, 0x43, 0x40,
  0xbe, 0x85, 0x60, 0xbf, 0x70, 0x80, 0xfb, 0xbe, 0x82, 0xbe, 0xfd, 0x3e,
  0x58, 0xfb, 0xc9, 0x3e, 0xd0, 0xa4, 0x33, 0xbe, 0x85, 0xcf, 0x8f, 0xbe,
  0xc4, 0x1a, 0x77, 0xbf, 0xca, 0xfe, 0xff, 0xff, 0x10, 0x00, 0x00, 0x00,
  0x04, 0x00, 0x00, 0x00, 0x10, 0x00, 0x00, 0x00, 0x44, 0x00, 0x00, 0x00,
  0x01, 0x00, 0x00, 0x00, 0x10, 0x00, 0x00, 0x00, 0x30, 0x00, 0x00, 0x00,
  0x73, 0x65, 0x71, 0x75, 0x65, 0x6e, 0x74, 0x69, 0x61, 0x6c, 0x2f, 0x64,
  0x65, 0x6e, 0x73, 0x65, 0x2f, 0x42, 0x69, 0x61, 0x73, 0x41, 0x64, 0x64,
  0x2f, 0x52, 0x65, 0x61, 0x64, 0x56, 0x61, 0x72, 0x69, 0x61, 0x62, 0x6c,
  0x65, 0x4f, 0x70, 0x2f, 0x72, 0x65, 0x73, 0x6f, 0x75, 0x72, 0x63, 0x65,
  0x00, 0x00, 0x00, 0x00, 0x4c, 0xfe, 0xff, 0xff, 0x56, 0xff, 0xff, 0xff,
  0x04, 0x00, 0x00, 0x00, 0x40, 0x00, 0x00, 0x00, 0x85, 0x45, 0xba, 0xbf,
  0x1d, 0xef, 0x3a, 0xbf, 0xfd, 0x3b, 0x0b, 0xbf, 0xfe, 0x7c, 0x4b, 0xbc,
  0x1f, 0x17, 0xa1, 0xbd, 0xb1, 0xd4, 0x60, 0xbf, 0x32, 0xc1, 0x8e, 0xbf,
  0xc1, 0x90, 0xad, 0xbd, 0x92, 0xbe, 0x21, 0xc0, 0x4b, 0xbf, 0xed, 0xbe,
  0x2d, 0xed, 0x97, 0x3e, 0x5f, 0x5a, 0xe7, 0xbf, 0xbf, 0xb3, 0xfe, 0xbe,
  0xdb, 0x78, 0x5c, 0x40, 0x6e, 0xca, 0xad, 0xbe, 0x07, 0x69, 0x81, 0xbf,
  0x6e, 0xff, 0xff, 0xff, 0x10, 0x00, 0x00, 0x00, 0x03, 0x00, 0x00, 0x00,
  0x10, 0x00, 0x00, 0x00, 0x48, 0x00, 0x00, 0x00, 0x01, 0x00, 0x00, 0x00,
  0x10, 0x00, 0x00, 0x00, 0x33, 0x00, 0x00, 0x00, 0x73, 0x65, 0x71, 0x75,
  0x65, 0x6e, 0x74, 0x69, 0x61, 0x6c, 0x2f, 0x63, 0x6f, 0x6e, 0x76, 0x32,
  0x64, 0x5f, 0x31, 0x2f, 0x42, 0x69, 0x61, 0x73, 0x41, 0x64, 0x64, 0x2f,
  0x52, 0x65, 0x61, 0x64, 0x56, 0x61, 0x72, 0x69, 0x61, 0x62, 0x6c, 0x65,
  0x4f, 0x70, 0x2f, 0x72, 0x65, 0x73, 0x6f, 0x75, 0x72, 0x63, 0x65, 0x00,
  0x04, 0x00, 0x06, 0x00, 0x04, 0x00, 0x00, 0x00, 0x00, 0x00, 0x06, 0x00,
  0x08, 0x00, 0x04, 0x00, 0x06, 0x00, 0x00, 0x00, 0x04, 0x00, 0x00, 0x00,
  0x20, 0x00, 0x00, 0x00, 0x2b, 0xb9, 0x27, 0xc0, 0xfb, 0x43, 0x18, 0xc0,
  0xc7, 0xde, 0xdd, 0xbf, 0x45, 0x36, 0x36, 0xc0, 0x43, 0xf4, 0x13, 0xc0,
  0xab, 0x5e, 0xa0, 0xbf, 0xb7, 0x06, 0x2d, 0xc0, 0xf9, 0xc3, 0xb7, 0xbf,
  0x00, 0x00, 0x0e, 0x00, 0x14, 0x00, 0x04, 0x00, 0x00, 0x00, 0x08, 0x00,
  0x0c, 0x00, 0x10, 0x00, 0x0e, 0x00, 0x00, 0x00, 0x10, 0x00, 0x00, 0x00,
  0x02, 0x00, 0x00, 0x00, 0x10, 0x00, 0x00, 0x00, 0x44, 0x00, 0x00, 0x00,
  0x01, 0x00, 0x00, 0x00, 0x08, 0x00, 0x00, 0x00, 0x31, 0x00, 0x00, 0x00,
  0x73, 0x65, 0x71, 0x75, 0x65, 0x6e, 0x74, 0x69, 0x61, 0x6c, 0x2f, 0x63,
  0x6f, 0x6e, 0x76, 0x32, 0x64, 0x2f, 0x42, 0x69, 0x61, 0x73, 0x41, 0x64,
  0x64, 0x2f, 0x52, 0x65, 0x61, 0x64, 0x56, 0x61, 0x72, 0x69, 0x61, 0x62,
  0x6c, 0x65, 0x4f, 0x70, 0x2f, 0x72, 0x65, 0x73, 0x6f, 0x75, 0x72, 0x63,
  0x65, 0x00, 0x00, 0x00, 0x90, 0xff, 0xff, 0xff, 0x14, 0x00, 0x18, 0x00,
  0x04, 0x00, 0x00, 0x00, 0x08, 0x00, 0x0c, 0x00, 0x10, 0x00, 0x00, 0x00,
  0x00, 0x00, 0x14, 0x00, 0x14, 0x00, 0x00, 0x00, 0x14, 0x00, 0x00, 0x00,
  0x01, 0x00, 0x00, 0x00, 0x20, 0x00, 0x00, 0x00, 0x44, 0x00, 0x00, 0x00,
  0x2c, 0x00, 0x00, 0x00, 0x04, 0x00, 0x00, 0x00, 0x01, 0x00, 0x00, 0x00,
  0x40, 0x00, 0x00, 0x00, 0x03, 0x00, 0x00, 0x00, 0x01, 0x00, 0x00, 0x00,
  0x0c, 0x00, 0x00, 0x00, 0x63, 0x6f, 0x6e, 0x76, 0x32, 0x64, 0x5f, 0x69,
  0x6e, 0x70, 0x75, 0x74, 0x00, 0x00, 0x00, 0x00, 0x04, 0x00, 0x00, 0x00,
  0xff, 0xff, 0xff, 0xff, 0x40, 0x00, 0x00, 0x00, 0x03, 0x00, 0x00, 0x00,
  0x01, 0x00, 0x00, 0x00, 0xfc, 0xff, 0xff, 0xff, 0x04, 0x00, 0x04, 0x00,
  0x04, 0x00, 0x00, 0x00
};


unsigned int model_tflite_len = 13120;// Fill the int in `src/model.cc` here